node {
  name: "Placeholder"
  op: "Placeholder"
  attr {
    key: "dtype"
    value {
      type: DT_FLOAT
    }
  }
  attr {
    key: "shape"
    value {
      shape {
        dim {
          size: -1
        }
        dim {
          size: 100
        }
        dim {
          size: 100
        }
        dim {
          size: 3
        }
      }
    }
  }
}
node {
  name: "conv_1/kernel"
  op: "Const"
  attr {
    key: "dtype"
    value {
      type: DT_FLOAT
    }
  }
  attr {
    key: "value"
    value {
      tensor {
        dtype: DT_FLOAT
        tensor_shape {
          dim {
            size: 3
          }
          dim {
            size: 3
          }
          dim {
            size: 3
          }
          dim {
            size: 32
          }
        }
        tensor_content: "\336~\201=8\364\366\275\371\014\332\275p\250c\274\020\246\223\275\"\367\272=\242\026\347= vK<2)\266\275Z\324B\275Pj\265<\210\342\265=0M\t<\214=\324\274\320j\365\274\000\376\323\274E\304\354\275\340\036\355\273\357\r\363\275=\003\n>\345\354\262\275X\224\332\275\374\260\360\274`\226.=\002\365\373=\370{n=\320?;<\230yY\275p\335\026<\010A\271< \023\350<\240\317,=s1\005>\200\036\364\272\036\354\033\275\254K0=\235#\351\275\024(I=\326\221\300=\266\245\263\275\031\027\210\275\326\367\356=TY9=\\\236\372\274\265\233\371\275\006\377\355\275\230\237I\275\247q\324\275\016\217\360=\264\263\242=\354\220\204\275\"\265\220=\314\207\256\275~\323\265\275\360t\021=P\3032=F\244\357=\250}\224\275\340hb=\305\245\010>\016\350\315=\374\377\200=\256u\265=\240\250\350;\360=\265\275\0007\350:\356*\342\275$\236\254\275\n\250\356\275\306k\236\275\2341\377\274h\023\245\275,\254q\275\210\332\225<x\256@=\230U\342\2758\345U=<\'\000=\310J\372<\376ao\275\321\333\376\275\254\226\332=~\213\325\275\332y\374=\372\274\230=\274*\001\275\300kH=\000>\320\271P\253\035=\000`\275\2714o\232=\217\004\014>ki\001>d\210\262=\341\322\014>\312\234\014\275 \025\345;\200H`<\335\370\001\276\001\214\006>\023\037\003\276\352\200\342=\334\327o\275$\'\337\274`\024\252<\346\320\310\275\260ZM<X\265\353<\014\204\023\275\332\303~\275P\345\373<\340\316\246;?\272\010>%r\242\275\324y\202=\026\327\334=\222e\241=\350@\253<\216)\320=\023\032\r>\200#\334\273\267\022\240\275*6!\275\305 \212\275`\346\257<\260\217:<\261\254\t>j\237m\275\250\267\211<\000s\303;\010h\370\274\350\231i=\n_1\275\227\342\002>\006z\230\2751\030\200\275`\252\224=\340\257\256\273\320 \216\274\372\247\333={\333\306\275\331;\000>\254\253\267\275$\000\201\275B\331\354=\306\362c\275&\367\330=\030e\365<\020c\336\275\342\271\270=\341B\006\276\316\306T\275\030\320\235<\336\360\352=\243O\t>B\342\273\275Jh\361=\312\372\003\276\000\345d\273\204r\210=^\303c\275\237\263\007>\342\020\364\275\370u\311<\204\t\342\275\200\003\341\275\030\222\021\275\000\"\224=:\223\344=\231\277\230\275\365\357\010>f\024F\275\016\214\221=\2202\273\2740\032\002\275,p\274=f\226\362\275\350\342\241\275\320\310A=\240\360\204\273\245\357\014\276rj\221=\270\305\215=\200\224\203=|\371\300\275\364G\203\275\205U\214\275D\323o=0\323\355<\246\256]\275\334w\211=\000F\303<<\002Q\275\0002T= \250\327=\240~\001<\200Z\234\274\000K\313:\346\266\347\275\226\246o\275.\330p\275\207\004\010\276^o\234\275\206\352\360\275\350o\377\275\257\232\314\275~\223\346=\202h\325\275l\271q\275b\237\270\275\203\343\216\275F\350\232\275L\364k=R0\340=:\"`\275/\363\200\275x\260\351\274PU\310<\2006R;\306\037\366=\264\357:\275w\306\323\275\260\210\000\274\000\332-\273\252\225u\275\260\032\261=\240\014\037\274\342\001d\275\024\nH\275\325\331\341\275\360\266^=\223\353\352\275\332\311\212\275Zs\021\275`\301\331;\300\254\235;\270k\306<\370\237\240<\2029\013\275\200B\261<\036\323\n\276\002\221\321\275\034(\351\274kQ\221\275\325\027\005>\2667n\275\024\224\206\2744\201\300=n\256\267=\336C\370=\243v\006>\226}>\275xF\317=\310\024\312\275/n\005>\300\020w\275\256\256\200=I_\230\275\010\3373=w\320\006>\260\204u=\020\027\303=O}\n>l6\231\274X\247\\=\305x\001\276J/\251\275\210\357m\274\274/\273\274P\273\304\275\221\037\246\275\271%\007\276b#\337=4\352\312\274\000\303|\272\272\215\265\275\014\354\030=D\230\353\275\350\352\356\275\000\214\3079\\\026\310=\260h\213<\205\374\327\275\0001\006:\254\205\251\275;\234\004\276H\344a=\026\037\345=\340&\206\273\214L\307=\250\364\272<\203\354\007\276H\273$=\244O\214\274\376\264Q\275\000M\225:f\353*\275\314\304\032=\3572\221\275\032\274d\275\244^q\275\"\361\264=T\367\306\275\323\366\003>Wt\304\275\350d\375<>%\261=r\275\313=\036\272\300=,E\240=:^\274\275.\276\225=\376,\377=\350\237\261\275\204\037\253\275\234e\363\274:{\376\275\0005!\272\372\227\205=\364\322A\275\220\'\344=z\250\223=\352\205\306\275\362\004\225=O\025\315\275\220\201h=\310D\202=\250}\232=\266P\251=\232\215\310\275\366\333\266=\310\263\237\275\310\252\347<M\355\222\275$&\354\2758\273\256\274\346\r\263\275\020\333.\274\026\264\334=\336\341P\275bU\207=\216/\233=\230B\252\275\2467\240=z\024\346\275>\\\303\2750\377R=\244~3=\374\010\362\274\375\r\224\275h\351\351\274TU\"=vl\350=`,\013\274\240O\250=\203\006\351\275\230Ux=\234\307\321\275<\374\325=V\006\327=\n|\253\275|\237\321\275\206\362\253\2750U\216\274\344\373#=\204\202\272\275\016C\267=j<\223=\330D\\=\312p\203=\210X\267\275N7\014\276\350\206\276=p\216Y=Pn\307\275\"C\336=\000cw\272\032\312m\275\267]\251\275\326(\265=\000\366\351\2752\266\302=\002\217\354=\320\330Q\275\\\202\274\274@\263\265=se\226\275\334\305u=\\\335\013= \362\367\273\322\035\212\275.{\023\275\234\337s=\252\320\265=\224\272%\275\337\321\206\275\350On=\034\302\224=.[\330=L\202a\275p\327\312\2747\206\232\275p\343A\274\356\3323\275Tb\271=D\210N=\244\356p=\334s\025=88a\274\310\355\214\275L\227\310=`b\341\273\320\003p\275\346\347\301=\370\275l\274x\271\260<8U\317<:8\302=\250D\221<N \271\275\036)\002\276\'\r\t>\340\214\016=\254A\233\275T)\341=)\326\362\275t\203+=\255T\013>\246;[\275\210 \245<\203$\007>\324\342K=,\363\025=\237\n\371\275\022*\211=\371\346\013\276D\255\312\274\303\327\000\276\316q\\\275 \317\332\273\273k\006>\200\373E\273\220\2237\2746\304\372=\222\013\362=\242p\356=\304\374\004=\360\276\317=K\376\360\275\002\312\357=n\024\005\275\277x\004>w\304\003>\257\261\220\275>\202&\275\016\031\330=\312v2\275**\202=\327\275\006\276\000BJ;\026\302\327\275v\343\215=\362\025\007\276\3348T=\024\237N=\200\005\245\273\342\207\314=\262\347\265=&\203}\275\002`\006\275\350\335\340=LK\255\275\000\223\n=:\364\271=\212\202%\275\226!\r\275N\331\207=\304\356\200\275\375\017\006\276\266\266\331=\216\313\331\275\347\226\236\2750\026\367\275`.\206\273\2169R\275\236H\002\276\302\317\255=\360\314\243\274\270\034\331<Bp\244\275\256b\237\275\204~>=\246\305\253\275}\r\007>\000\341Z:\276\253\331=Ot\303\275\322\021\346\275\336.\000\276\342\231\377=\374l\330\275\020|\373\275P#%\275~\354\221=c~\t> (\362;\262\005\310=\216\235\271=l\200\251=\344\232\230=>9\324=\312U\232=\354E\231\275V\335\354\275\024\'\301=\033\241\002>\322p\003\276JL\014\276\240QW<\372\336\367\275J\007\263\275\200\252\344\273R@\272\275\237\261\n>.@\354=\200\225\326:\200\314 <>\021#\275\331\256\360\275\210\371\t\276\257u\320\275\240\305\241;`\254\303;\337i\003>d\000\270\275\300}\314\275h\345\260\274\0046\302\275\204\275\344\274T\273\242\274\272\315\273\275\027-\003\276f\237\364=\320\242\272=\254\260m=\341;\r>\337\211\210\275j;\275\275HX\344=6\214\356\275\036c\351=\304\037\336=\000\330\3238\341{\001>P\211\311<\300\017\223\273\\.\352\275\\N\205\274N\"\271=\340\225\243;\302!\303\275\376\337\320=\024\314\255\275b\'\237=\3001\301<B~\264=\303\372\212\275sm\221\275\220b/<\204a.=gK\014\276\\\370\331=\"\315\335=\0002\n<\200\303\032=B\322\320\275\374A\355\274\2246s\275|\034a=\204}\226\275nl\352\275x\356\024\275`\031\024=\200r\036=P\246\337<\000CO:Z\302\240\275H\360\275\275\200:\210=\230\236\302\275\324\\\376\275\322)\273=@\036\235;\213\370\375\275\360H\037\275\026;\360=\360\302\263=h\2517=\024K\n\276t\320\251=pF\316<rb\007\276|\333\005\275\004\n\341=l\024\377\274\200F\275\273\242\300\355=\004&i\275\002I\351=\206u\347=\360{^\274\234\352\001\275x\301\346<\332\224\265\275*J\240\275F]\346=R3\376=\314\313\022\275hY\264=P\037\334\274(t\226<bQu\275\032\311\307=\333[\356\275\\{\241=P\270\203\275\000\241\355\274D`7\275\240\372\223;x\301\205=j%\225\275RP\320=\377\356\364\275\300\007&<\341\273\n>\244\341#\275\010\372d\275\004mN\275\2402\262;\337\325\315\275\330\003\371<\223\374\217\275\324\256l=\220\365t<p~\245\275\204a\\\275\346\220\346=x\343\013=d\326\344=\\\206\226\274\210\031\000=\034\260{=\000\367\004\276\264*\343\275\246\034\270\275l\311V=\342\232\276\275~\323\357\275`\370\252\275\000\004\250\274\255\010\004>\220*(\274\314\316\372\274\024`@\27580\324\275@\353\002<\341]\347\275\222\023\313\275\200\221I;H\250\234=\340z\273<(\203u\274\000\375\316\273\250\tL=j\335K\275X\207\335=\355\007\212\275\207+\244\275\000\354\007\275bt\235=\240\0169=>\037p\275C\353\230\275\326u\214=\302\026\374\275\250t\307=g>\t>\250\351\325<\000\302\341\271\376\030,\275N\351\224=\261\354\310\275\310W`=\361\361\365\275\300\t|=32\325\275e\307\007\276l7\005\275`sg<\230$\363<\234L\241=\350y~\274\342\263\374=d\266\207\274\240\323\364\273\270\207\266=\320\373E<:*\000\276\310n]\275D\325>=\316\377\332=\374\200.=0\3229=\220\322\273\275n\263\374=\3365\352=b\r\347=XR\326<:bT\275\000\310B\272\320\334f\274\320\255\003=\006U\356\275v\353\204\275,\325\325=\000\376\3319t~x\275\240\2433=\220\017\351<\004`(\275\276<\240=\260\314M<\364M\321\275\334|\233=bF}\275T\022\364\274Ve\332=\020G\032<X\304\264\274\260\213;=oT\214\275\272\226B\275l\221\277\275\232\261\346\275\354e[\275P[\226<\350\032\207<\220X5<\244\355\324\275vj\253=Z-\003\275\353\022\220\275-\260\374\275\2478\013\276$kA=D\251\213=\342\240\276=\344l\367\275\022\252\265\2756\010\341=\3166 \275\030\325K=H.\355\275\210\332\277<\026#\246\275E\231\005\276\266\013\302=\270In=J\223\254\275\000\204\362:\212H\371\275\332\375\t\276\276]\324\275\244#\002\276Pe\355<.)\224=\260\212\036\2758\016\315=f\343\230=\201U\373\275\026Z\274\275\244X\251\275\000\343s;\274\304\177\275\300\3510\273\2724j\275\030\302%=\212\277\341\275\340_\343\273\370,\213<\214[\371\274\027\274\371\275\302\035\341=\374\333@\275\260s\304<:|\270=\2666\271=8\025\275\275<u>=\266G8\275n\026\316=\234\254\356\274z\322\230=T\345_=\340\026\363\274|\373\356\274\226}\303=\250\302\212=Fs\354\275\310<-=\370\n\245=:\225q\275\032\340\222=\311\255\004>\370j{\274\010\324\335\275\006\301\346=\024(\236\274\223\315\352\275H\211n\275\000\222\224\271B\253Z\275)\244\204\275\334A\264\274\234\333\324=\344\360(\275\374\224Y=\224\316Y=\030&\037=r\316\367=\023\\\004>\212|p\2759\205\013>\222s\200=\226\025\307\275\224\271\274\275\200z\376:rZ\000\276\350V-\275j\312\274\275\220\030\342\274\210sN\275e\037\376\275$\364\212=l6\371\275\002\333\262\275\030\370h=.\317p\275\375\202\010\276\364\235\377\274\246\030\357=\336\311\000\276\200\021\207\273\004\000\266=B\336\363=\237\317\007>\307\311\007>\365S\233\275\226\030\230=\244V\322\275\360\241f\275\276\351U\275\206\370\366=\361\365\222\275"
      }
    }
  }
}
node {
  name: "conv_1/kernel/read"
  op: "Identity"
  input: "conv_1/kernel"
  attr {
    key: "T"
    value {
      type: DT_FLOAT
    }
  }
  attr {
    key: "_class"
    value {
      list {
        s: "loc:@conv_1/kernel"
      }
    }
  }
}
node {
  name: "conv_1/bias"
  op: "Const"
  attr {
    key: "dtype"
    value {
      type: DT_FLOAT
    }
  }
  attr {
    key: "value"
    value {
      tensor {
        dtype: DT_FLOAT
        tensor_shape {
          dim {
            size: 32
          }
        }
        tensor_content: "\000\000\000\000\000\000\000\000\000\000\000\000\000\000\000\000\000\000\000\000\000\000\000\000\000\000\000\000\000\000\000\000\000\000\000\000\000\000\000\000\000\000\000\000\000\000\000\000\000\000\000\000\000\000\000\000\000\000\000\000\000\000\000\000\000\000\000\000\000\000\000\000\000\000\000\000\000\000\000\000\000\000\000\000\000\000\000\000\000\000\000\000\000\000\000\000\000\000\000\000\000\000\000\000\000\000\000\000\000\000\000\000\000\000\000\000\000\000\000\000\000\000\000\000\000\000\000\000"
      }
    }
  }
}
node {
  name: "conv_1/bias/read"
  op: "Identity"
  input: "conv_1/bias"
  attr {
    key: "T"
    value {
      type: DT_FLOAT
    }
  }
  attr {
    key: "_class"
    value {
      list {
        s: "loc:@conv_1/bias"
      }
    }
  }
}
node {
  name: "conv_1/Conv2D"
  op: "Conv2D"
  input: "Placeholder"
  input: "conv_1/kernel/read"
  attr {
    key: "T"
    value {
      type: DT_FLOAT
    }
  }
  attr {
    key: "data_format"
    value {
      s: "NHWC"
    }
  }
  attr {
    key: "dilations"
    value {
      list {
        i: 1
        i: 1
        i: 1
        i: 1
      }
    }
  }
  attr {
    key: "padding"
    value {
      s: "SAME"
    }
  }
  attr {
    key: "strides"
    value {
      list {
        i: 1
        i: 2
        i: 2
        i: 1
      }
    }
  }
  attr {
    key: "use_cudnn_on_gpu"
    value {
      b: true
    }
  }
}
node {
  name: "conv_1/BiasAdd"
  op: "BiasAdd"
  input: "conv_1/Conv2D"
  input: "conv_1/bias/read"
  attr {
    key: "T"
    value {
      type: DT_FLOAT
    }
  }
  attr {
    key: "data_format"
    value {
      s: "NHWC"
    }
  }
}
node {
  name: "conv_2/kernel"
  op: "Const"
  attr {
    key: "dtype"
    value {
      type: DT_FLOAT
    }
  }
  attr {
    key: "value"
    value {
      tensor {
        dtype: DT_FLOAT
        tensor_shape {
          dim {
            size: 3
          }
          dim {
            size: 3
          }
          dim {
            size: 32
          }
          dim {
            size: 32
          }
        }
        tensor_content: "8\335Z\274\2507\305=k\244S\275\340,\242\275\2405E\274Cu\253\275>\367\315=d\210\264=H\265\272=<g@\275\250E\222<\024\341\217=\260t\344<\364\270\326\274\220\275r=^f\250=\036\365\200=\275\322=\275\336wJ\275 (\357\274p\302\207<@\271\334;\244\372\001=07\276<\264z\370\274\270\272\343\274\307\026K\275l\021/=\260\342Y=\240\244*<\256]i\275\214%\251\275@\026\323<i\003\214\275\220\267a=\200q\364\273T\273x=\200\233\316=\324\322\201<q\004\255\275\000h\2329\300#\221\274\014\361\251\275\230\003?=\307w\306\275p\273\327<\334\003\355\274\032j\253=\320\025@\274\310\365\240\274\'\336\226\275r\210\243\275\000\021\253=\360\265\271\274@4\257\274 \361\032=\234\321\212\275\023!\235\275\214h\316=\030W\261\274\0208\315\273\t\302\226\275\032\253\317=\260c\370<P}.=8\324\303=:\n\270=\004\356\312=\3349\204\274\\SR=\260\233\213<\374s\250\275\354\271\035=\362\206\247=\202\376p\275\310k\022=\324H*=\330\373=<O\227\204\275\314z\203=\202\354\276\275\010~\364\274\006\235\227=\343\354\215\275\330\370\262\274\262j\211\275\"\211\026\275\210\377@\274TF\031\275\310\300:=\207\314\317\275\3131E\275x\361\r=\320\232\223\275\23217\275\034-\270<\010\366\355<X\271\315=\2203\n=jC\310=\234\342!\275\374\337O\275\310\266\351<\275\354k\275\264\346\r=k\227\306\275\317\225\306\275\\\207\032\275\234\336\201\275P\236:\275`g\364<\220QQ< \251\323<\350\335\001<<\237&=\201\027c\2750\265j=:[\241\275I\335C\2754\267\304\2750c\234\275\014\003\304=`\003\234=\250\006x\275\332\244\223=\360\316\222;\2168\300\275\220\"D\275\237\231C\275$\000\336\274\310\230r=@\356]\273\250\377|=\334\024\243=h\210\270<\010\277\342<|\027i=\216/9\275 \343o\273\312&\252=L\002x=\360\221\336<\274\377\271\275\3407H=`\327z;p\274\210;\371x\254\275\246u\227\275T\307H=\301\3435\275PT\310\274d\005\217=\340\340d=V\331\316=\300\260\003;\366\302\305=@_\035=\027\013\314\275\200M\320:,\215\241\275p#M<h=\034=m%8\275\224(\277\274\024\356\224\275\025\230*\275\200\236\324;F\263H\275\\\204\226<\342\360\271\275|\224\275=*i\273\275\270\347e\274\250\352\271\274\355\202\302\275\014\211\355\274<8\371\274\000\270\031:x\026\271\274\244\207\032=\3701*=\364tC\275:Q\222=\000\330\273\271\006W^\275 b\224\275\203\274\203\275y\001\260\275D$\021=\270R\360\274\032\263\220=\010\361\304<@\003k<\2609\222\273\360b\340<\316\347\002\275\360\236\343;4\300\267\274\334\022\272\275,\3147=4\321S=\364\007\360\274,\273\334\274\016>\261\275\210\332\307<\240kx=x\304\013=0V\200;\354\200\272=8\026\034=\240\313%\274`\333:=\262\336\224\275n\301\000\275 /\304;\220\025\001<\n\310\263\275\024\003\250=\036\250\245=@\221i=\005 8\275X\355\255=l@0=\326|\222\275\200\004E=@\232b<tC8=\1771\275\275\200\355\362\273\374O\212<\023\030_\2758]u=\200x)=\342$\223=\224eu= b\260=\364\210\222\275\274&\023=\357*\265\275DW\200<\213\336\212\275\266\214\310=h\373\215=\320\2336\2743\241\271\275J\001\215=\344N\t\275:X\202=B|\230\275\000\343\2019\260n\303\275 V<\273 jh\273\004\036\235=\236\212\320\275X\333m<(W\202<4\205\236\274\311\240<\275X\337v=`\310\022\273z;\227=\000\224\253\274\204M\227=\023u\230\275l\262\237=z\212\304=\220ZZ=\020\031\264<{\010W\275\300\344\341;\320\007\243=\r.\275\275\260\267\365\273\200)G:\374\n =\014\366\254\274@\037\242=\004zP=\374{6=D\302p\275xk\275<\026\255\004\275p\235\254=\325\264c\275\2103\025\275\006\374\214\275\320\025\221\274\216!\177\275\314\233^=Z\203\305\275\016\302\211=\270\237`<\352\200\227\275\2000\275=lG\366\274\200\373\203=\314;\233=v|\202\275:\361\020\275 \355\370\273d\257\223\275v\027\245=\236c\302\275\030\376\207<\321\356\214\275\020\002\226;0jl<P\264U=\210e\234\274\353\027\270\275X\020\376<.\320\312=\206\243\301=\300\236\010<\360\030\243\274\030\3063=ti\\\275p\340\017=Dw\321\274X.\213\275(\270^\274_\244I\275@m\377:n+\222=\354\337\323\274L\356X=\034\000\207\275\264\210\303=^n\315\275y}\204\275 \253\016<J\032\005\275@\306\363;\326bD\275\336\221\301\275\200\005\027=\002u\206\275@0\366\274\340\277\357\273#\367B\2750\324\330\274h\246\213\275\254\233H=\260WL=p\365\020=`\255N;x\231g\275\010j\371\274tG\217\275\374\322\222=\010o\213<\014\240\236=P\334K\274\"jV\275\234\326\277=:U\214\275\020;\256<\320\306\201\275\000\036&;H\001\203=\250j\002<\320\005\361;\360\346\224\275x\020\342\274\230\256G<\010\322\234=\254)\032\275h\205\365\274\000\310\313<\337\203+\275\350;\305\275\240w\274\275\236\376\263\275T_\310\275\024\004T\275\222\233\272\275\026\270\221=\"\362_\275\220\006!\274\033\225U\275\023\356\310\275/\263\315\275`\355\256;\215\\\224\275\226-\225=\343\356{\275\244\226v=\250[j<\212\023\202\275\316\340_\275]\367\303\275H.\375<\020:\021\274 \336\311=\000(\302\273\000\357\3239\332\206v\275Hj\211=\311\334n\275\200\300\263;\340;\371;\360\023<=\240\333\333<}\373\"\275\224\372\222=d!\001=\010@s=\224\272|=\254w\031\275\340\234\324<\314T\210\274\324\256\202\274 \367[<.\215\021\275\342\343\033\275\020i\237=\030\242\027<\324i\304=\324\327\253\275\257@\277\2750i\311<\261\324\271\275\022\346/\275\304\230\213=\226r\223=$\315\202=\006\364\307=D\\k=P\237\324;T\342\216\274\274`P=\350\205c\274V\307\202\2759\005\314\275\344\321m=\254%\274\275U\251|\275\376\324\261=h\3167<`\316$;T\354\255\274\353W:\275\000\016)=\324\204\204\274C\352\314\275\365\340\240\275\232\230\313\275\210\024q=\240\002\366\273i\267l\275\\\274\253<\362\014\005\275.2\236=\250\376\277<8\202h\275F\302I\275\206&\212\275\377@\224\275H\013F=\3503S<\200m*;\310\235\345\274\260z\205=\313\201]\275R:\314\275{\352\260\275\020.\222; \243Y\275\234E\033=\372N\030\275\344\374\243<PQ\264=@\235\307\272\300\364\203=\300\356\240:\300\241g<\217\037\257\275*a\304\275\031fs\275\200\354h=\2039\304\275\324\021\236\274\360\267\364\273\'\376\242\275X\202\"\274\203H\201\275\360\233;=\200\001\372\274\2364\275=\010\344\301=p\320!=7\020\267\275\332\347\307\275\324\217\217=\220C&=\264\001\275=\266r\257=\372\232\305=4\025p=\341V\251\275\220Ou\275\n\373\275=@\002\'\273\350\223\017\274H\227\211\275\"\240\200\275\232`\273=]c4\275\200\331\243\273\340t\031;X\330\205=\276\245\220\275I\330\226\275\260\252\364;L\324\251<\360\236b\2748\025<\2748\233N=`\275\023\275v\262\317= \222\212\274\004s\271=\320\257\332<P\342$\274\254\214\217\274\034\333\313\2750\3504\274\323Q%\275\240w\216\274|\312q=tK\221\274\310\201(=\370\020\010<\2713\303\275B>\240\275l\205[\275x\346r=\2308A<V \224\275(\026\264=<\007\314=\002W?\275\374F\032\275\216\246\225\275\324\025\364\274\003#P\275\324\212w=\020\241\242\274j\241\231=[\007=\275\254\036\032\275\254m\214\275\274\322!=\030\343w=\320$0\275\230\236`=\024 R=x\360\203\274\340\241%;\250J\312\274\000d\356; \355\274<\300\237\343\272\300\262\237\272z\360\306\275\371x\221\275\320\331\017=8w0\274\n\321\r\275l\275\231\275P\304\244<\224\220\027=h\337L\2754\261\255=/\214\262\275\330=\360\2744hB=,W\354\274Q\355\234\275\344X\224<\261`M\275\020G\226\275\\x\225\275\204\303J=\324*j=T\307\255<\001t*\275\200\325\263\274\271\344[\275&\304\301\275|\021O=J\265m\275\310n\334\274\300A-=\220\027&\274\344\021\202=\314\340)=\340\247]<\230\250\262\275\010T\177<\2400\320<\236\247\247=`\204\022\275F\227\277=\260\271\217<\200\340J;\004|\216\274\220\010W=\024_\030\275\370\001\320\275J\340\201=\270\177\027=\014\202\370\274\340\203\367<i9I\275\312\342\020\275F_7\275`h|;\210C\253\275\274\006g=\036=4\275P\333=\275<\271 =\234K\207=\274\327\375\2746\264\253=g3\244\275\300\320X\275\332\376\020\275\014\341\356\274\364pg=`\006\320\273\200\301\327:&\202\260=t#\315=F\232\270\275\260\255\377\274ic$\275\340\001\\\273z\023\242\275\243\014k\275\250\212]\274\r\343\311\275\3528\261=\024:#=\370\216\230<)\204\210\275\024\221\246=\021\304\254\275\364\017\206\275X\367L=DB\267\274\314\275g=\264\016X=\264\262f=\020\366\326\273\350\177~=\200\032W=L\304\302\275\344\215\031=\220\215\343;\314\214u=\364v6\275\010\353a\275\276\332\000\275<\036\312=\271\237x\275\026\315\213=Z\035\206=@\366\307\274\260&\323<\245\037G\275\256\367\251\275\376\267\204=\260\023\006\274\364\344\245<\301\225\265\275#\032\230\275h\212\253<x\020\177\274\254\031\334\274\214\234\307\274\314P\030=\254\203\266=\026\203\267=\300^;=\342\023\260=\024N\304\275\213\313\231\275\334\214\223=\000u\223\272\241\215\225\275dn\211\2754\336\267=L\357\216<\\\357y=T|&=nu\313\275o\207\245\275\260K\216=\300\217\311;\354\324\024\275\224K\277\274(\206\026\274,\367\261\275\300\"[=^m\007\275p\343\217\273\210\374\361<\236\256C\275\300\010\245\272\006\223\266=\276@\305\275\323D\317\275c\311g\275\331\344\200\2750G\275\273\314s\257\275F~\275=x\325\242=\320X\003=\2743\224\274\036\036*\275\000\374\3568\200\325\311=|T\313=\006y,\275D\314\227=+\3070\275\036b\256\275`\232\"=\024\357\223\275`h <\274L\320\274\340\207\"\273\302\246\004\275\000^\371<\371\273\200\275z\207\211=\324\265\303=\224II=\270\336p\275\264\312\332\2740G\246<H\215\335<oR\'\275\010\240\251\275>\247\036\275\336c\200\275\362\357\216\275\002\263\254=x\203F=dZ\025\275J\223\222\275<{\312\2746\002\237\275\344H:=kPB\275\000\t\031\272\0006\334\273@lf=2\336\243=\374\312\226\274\220\341b\275$\222\213\2746\243\255\275p\350\370;\300\336\347<x\364\250=\372\264x\275\306\321\267\275\330S\026\274\330\324\024=P\214<\274\322\377\210=z\017{\275\0202\003\274\020\325\324<l\266\201=2$\247=\014\363p=J|\304=X\374i\274\352\225\245\275\250L)\274PQ\035\275X\322\213<L\264\205\274\020J+<\201+\267\275\260\321l\274\232c\233\275\300,{<Q\336\273\275=\305Q\275\370\307\215=@\005\024\275\210\272\361<\025\330\225\2754\231\253<*\314V\275\240\333\250\274x\213\340<\260\343\305=\223\264\255\275~\227\232=\030B\341\274\200e`\272lJ\235=\310/\242= \277+;P\340\350;\\\267\202\275\010\036\256=\032\275!\275\200\216^=\006\207\216=\260\017\347\273\312\220_\275T\240\016=`;\r\274\300\207\217;\240\331\364\274.)\255=(\333R=\034\247\237<\006b\220\275\340b7=\260S\006\274\260\301\020=\216d\230\2758T\014=\340\374_\273\300\264L=\304\214\231=\240\001e\273$D\226=\310\357\016=\022\353\206=\277\367\272\275\320\014\035\274t\237\004=8\271\351< b\213\2738}\215<\3048g\275\314D\212\275x:\r\274|J\t=\331\034\266\275\272\331H\275\207\336\224\275T\023\235\274G\006I\275\274\215o\275\364\370%=\3644\215\274\300\214@=\316\315\000\275\000\307\371:\"\377\225=d\257\033=P\277\336\274\200\"S:\360\377+<T\311\017\275\350`\304<\234\317L\275@TH\274\370\363g=\3346t=\200\344\234;D\t\300\274\030a3<6\033{\275H\232\315<\\\223\177=\200T\204:a)\271\275\302\214\304\275owJ\275\310\225*=8\262\227<\260\010\247<X\271\"<\030u8=\020\350\322;\330\373\021\2752\330\010\275\364I\212\275\337?\213\275\344\005d=\320\'#=\326,\264\275B\003\272\275\007\325@\275.b\t\275\034\3566=0.4=>r\270\275\260#\203=\034\341\251\275\327\360w\275b4\266\275\354\207\315=Lj8=\3051C\275H\313h\274^\253\226=\007h\222\275l.~=\337\272\313\275b\'\314=$\322\202<H\315m<\240\362-=\200w\241\274(\316\232\2754\220q=/J\305\275j\023\304=:7\215\275\020J=<\230\031\222\275\030r\211=4\356_=<\014\002=\223\027\312\275\370\267c=\016\335\014\2754\361\270=\002D\234=\000n&;\354\277\303\274\362t\017\275Pu\333\273\030\020\'\275\260\236\030<\270^4\274\246]\"\275\266\334\255\2754\305\002\275\020\032\027=\000\372R\273\217\250\265\275\324\373(= \351L\275\370p2\275\327\355\212\275@T\343<\314\024f=0\r\252\275\322:\207\275\316\\\230=\024\352\200=\224*V= \331\017<hq\370<8\221s\275d\270\225<@\"Z<\260\313\322<\2703\311\275\323_\262\275@z\225\275\370\335\210\274(\305*\274f\222\210=j\266\020\275\366d&\275\324\373\307=\356\017\207=p\367b\274\020H\346\273ES\222\275t\305\250\275\242\231#\275\014\222d=\204\237\345\274\014\365\272<\246\206\277\275`\026\367;\232\237\231=\332\323\245=\204\367\260\274\244|\000\275\324\241\216\274 \351\335\2748\247\310\275\200\276#=\340\345\330;@T\310\272\000\000Q=n\031\r\275%\353\271\275\252\254\244=\364\227?=\234\332J=,\360\263=Cm\236\275<\3619=\200\036}=\260\223\266<\310\240\027=l\334p=x\353\005<\216\260\315=\350\023\031\2750\331\316<\236;h\275\372\215\216\275\314\215 =S\376\305\275\260\305\241=(\207\024=4\324e=\354\233\265\274\210\256\216\2746\305\265=\360@M\274\237\226\261\275\342\371\234=\320\231\277=\276k\261\275x[t<\374\252t\275\350\226\357<\200]\000\273\310\033\301=Hh?=\340\317\n\274\021zm\275\360k\360\273\354\306%=\256$\261\275\300f\320\272\030x\207\275\250\337L=\264;\266\274\342\266\254=4\265\314=\210\201\322<p\230\201\275\263\t\203\275nm\003\275\330#\341<\024I\244<(\326\342<\360\221\215<\032\225\203=(\000?\275\350\267h\275\002<\213=\020UA=\240\320T\274\227\353\260\275\242\360\301=\020\001T=\304/I\275\350\r\322<j\245\212\275\352Y\312\275\236\014\215=\000\240\2769\240\204\373<\300\036\333\273\200Y\006\274\300\025\267\273\314Le= \272\360\273\342\031\202=\362\327\264\275\244+G=`\326:<\350\213\226=P\351\220<Z\317\026\275\030\037\361\274~+\025\275lhU=&\034c\275\200\203\336\274\030\317\236\274\200\317k=N\263\212=\270s\342\274\332c\301=l;\313=\014\006\255\275\257\312q\275t\022\221<^Y\204\2750\300r=tn\256\275\360\223/<`F\277<\340\307N\273\300!\301;\374+v=\320\307\357<\2068\230=\254Y\316\275H4\315=\021\266\244\275Kw\257\275\3647\315=(\205a<\274\t\300\275\264\242U\275x\241\307=\220\032Q=\306\'\236=\360Rd\274\320x\303;\300QI=\354\374\311=:\033\221=H\361+\275d\'n=V\023\257=P~3=\202X\312\275\350?\250\275f\022\316=\\\320\001\275 \307\251;\353\036\264\275\332\336\204\275t&\320\274v\350\200=\214\030m=\334\216b=\364\270K=@\234\336:\020\204\276<\240[\222;\362\377\244\275\214\245b=\360\330\222<0\333\003<\374\215\265\275TO@=\336\310\230\275n\251\217=\350\265\272=\251UP\275n\006\311=\214\344.=t\213\212=\260D\020\274\000\313\3729\330\214u<hJ\266<\363\337.\275zX\265=\3421\226\275\017\315(\275\200y\316:r\270\254=\216\320\210\275\250y\"<`\200\264=\223QZ\275p\033\006\274p4\005=\337\323\'\275 \322\244;@\266w=\321\tf\275\330\3310\275\222R\225\275\314\205\177=\200\355}=\212\330\243\275MV\224\275\022\225 \275&\267\235=8\242t\274\222\027\313\275_n(\275\314\277\324\274\306\363\240=0Y2\275\221\271\260\275 O\232\275v\020\310\275\260=)=ea\272\275l\263\230=\260\221\327<\361\316\205\275\221\313\261\275\353\342\312\2750\210\004\274g<\271\275\202\030\233\275$S\205=\254\003\367\274\310\037\004=P\260\221\273\020\367\312\275z\334\211\275`\220\320\273 \204k\275^6\313\275d\363\'=\314\035\302=:\021\231=\3205\257;H04<\3542\252=4\354\213=\220\351\317=\320\275\276\2740\213N\274h\366\325<\337\337@\275\220\322u<p[\357\273\214\225]=\320l =\225\020\201\275l\273\257\275\264\022\010\275*0\002\275d\374\310\2751\207*\275zv\242\275\032\362\230\275B,\273\275 \241\030\274\024,_\275\t=\226\2754\023\262\274\020\013\372;\204fL=\002\274\256\275\306\003\033\275@\246\312\274\320\036\227=>H\220=H\227\355\274H\366\357<Pu\266;\000\250&8\004\300\262=l\351M=J\356d\275j\263\303\275x\375L=\200\374\225\272\204\021\200=\300C$=@\230\200=x\360\037=E\201}\275@\245\266=X\213\373<`\037\305\273\211\243\275\275\300\215\215\274JL\201\275ZT\251=r\216\224=z\263\223=\300.\317\274PL\322\273 (\321<\200\310\255\274@\342l\275\276\321\247=\000d\366\271\032\375M\275\0368\253\275X\213w=\001X-\275H^N\274\332\376\032\275\024\024\217\275\344b\257\274PH\350<\340\377>\273\264\226\253<\230%\325<\214#\306=\320FI=\306\"\312\275\0220@\275\010\352\233=ro\034\275L\211\222=\224ul\275\026\351\214\275\224\203A=LN\005=\362\306\022\275Hv*<\224B\247= 9\247\273a\230\204\275wPq\275\374\246\262=\220W9=\244^\272\275\301K\256\275@\n\240\272\353>%\275\330\263\020\274 \002\203=X\276\024\274\310\371W\275t\344(=p\372o=4\222\216\275\000Q\013=\244\032m=\260\'\271\273\022\265\262\275\335A\301\275a\255\222\275\331\231\304\275h\\\305<h\023?\274\211\260\213\275\213\304\316\275\3409\006\275~\361\274=\354\275\252<\344\007\215\274\272\004\220\275\270(V=\200x\272=\237\332\261\275\356\300\264=\250\'~\274\030$W=\244B\266\274\364\346\037=t\266\313=j\263\244\275\270\306\033<\362\377\204\275\321g\213\2750\225\331<\306\016\001\275:\343\266=\030\3072<Hwq=\334\365\246<\030I\210\275 pZ\274\340\246\336<(\274\203\275Z\006\252\275\020\351\256\273_(5\275\177|F\275\356b\206=\320\2030=\274T\357\274\304}\210<\330?==,y#=(\261\037\2742\374\022\2758\014\257= }$\273\362)\252\275\003\362@\275\000eV:\200\021\242:~\231\261\275N\210\214=\320\024\200<\210Yb\274hk\201=\\QL\275X\234\370<\336\305\230=\334\002\275\274y\347\230\275\264\013\302=\205\227\224\275\240\1773;(\322\270=\240V\227\275\304{\233=`,\247\275p\033#<\342\332\237=\020\252\244;|P\317=\206\201\007\275 \332\306=@\250\251\275\234\275\033=`Uu=x[!<0Av<\370iG\275\354\003\027=\224\221M=8yq=\344\313\301=\304<\237\274\320k\216\273\202\324\315\275\326Q\253=4\247\210<\022\237\306=\014\311_=\336\254I\2750K\264\275@_\177\275\220\205\363\274d\361\262=\350\2414=[\307\237\275E\343>\275\010\204z=\320\243\206\273\253\350\265\275\222\257\316\275\344\237\236\274\240\247X=\200\206\307\2748\'M<\025\204\310\275\264K\t=\210:A<\014\334\034=\210\240F= \327\356\273x\275U\275(\246-<\222\t\251=,\336\307\274\306^\200=\220\277\020\274\304\273\221<\002\311\223\275\310\344;=\214\372b=\034\023T=J\311\200\275Hsl=f\345\016\275Z\334\262\275\324\251\301\275\000\274q\271\323C\265\275.Q\271=\242\001\010\275r\270\271=\230\262\241<>p\227\275@\000\252\275\030\005\006\274\rL\277\275 \036\342<l\321\307\275\200B\232;\331\203\257\275\244\371\013=\360R\354;\274\261p=F\260\312=\022\215\267=$\346\023=\010\036W\274\2706\001<\260\264\027=\342\254\211\275J\312\207=\340\336v;8\026\275\275g:\267\275\033a\235\275\210y\262\275@~\356\272\250-\020=\254\271\230\275\314&\225\274\024\224\256=\376M\203\275\273\351O\275\330\346+=\240l\220;\360.\310=1\"\226\275\370\265\246< R\260\275N\240\302=\334xn=\323\324\305\275\n\252\277=\240\272r;\370wS<0Ls<\244yq=gq|\275n\216\314=0D\263\275\2027\262=\200\367\234=(\316\026\275\205\376\303\275\212\247\302=\340\310\322<\370B\037\275\\\201v=L\302:=NO\020\275M<\224\275\354\332P=.e\266=z\313\202=\254\216j=\'.\312\275\3044Y=\010\377Y=b\211X\275l\264\234\274B2\224\275\230\252\303<p\226\200\274\302\"\243=\\:>\275:\t\254=\232pv\275\000\314\020\271X\234\351\274$\222\030=`\355\212\274\314T\216\275\0140-=`br=\334!?=\264>\007=T\244\004=How\274\303\000o\275\020>\001\274\234\275<=\224\313^\275\200\360\226\274\205`]\275\0040\231=\200\004\307\272\010!\204=\270\371@<s\n\204\275\334\233\304\274\355\306\213\275\260|\304\274\014X\003=\252$\305\275(z\311\275H\301\001=\035\240\203\275\264{W=\030|N\275H\222\204\275B\232q\275\2048\243<\220\006\017=\304tN=\354[\003\275q\220\311\275\3668\222=L\231k=\374\311\265=\004\262\264=\304\330W=\230\251\313<\362\037[\275\002\264\257\275L\261\240=\360\217\373<\036;\n\275\352\367\221=\364\326\240\275x\201\226=\\\372\245=0\"\006<Tf\031=\220PI\274\320\314B=\360m\014=\210\200q=\\uo=\364\021^\275h\325\222<\246K\263=\220=\256<x\310I\274\332\326\205\275\206\320\300=\336a\314=\3201\225\275\324W\255<t\331\301\275\024\027\204\275[\323)\275 \r\201\275(\303\374\274pT\254<\014\014\232\275\260\265\203\274\374\347\036=p\256\274=\320\205c\274\314\274$=g\023\274\275\3340\216=\000\000\024\270\230U\201\274\014\2454=`\023O\275\204\007\233=B\337\312\275\"Y\253=w\330\203\275@g\341;\0026\276=\201\355\202\275\304\226\000=D\276\205=\350\205\321\274\275t\320\275\200vo\272\2166\000\275\320\007\'\274H`\355<\277/\264\275r\222<\275\340\010%=\200\306M:p\307\246;(\326\212<(\201\371<\0066\302=\000\014\t\273d\364\265=P\270\241\274-I\305\275\264\362\n\2754\230\226=(!\373<h\240\210=\032\234\200\275F\336\242=~\325\250\275p\344\010<\034\234\243\275T\0179\275\210\331\276\274\214z\021=\270\t)<\302D\312=\361\371\314\275\2103\261\275\231x\263\275\260-\210=\274\317\267=\210m\313\274\320\000\037\274\267^\226\275\340\253\253<\000\346\367;$5\035\275x\235\006\274\000@\3077\266\316\302=$\266\310=0\310\303<\370\257\233=\360\001c\274h6M\274\222W\266=P\3719\274\014\202\275=\205#\310\275\nD\222\275\300?2=\310\"\207=\360\264h=%\2142\275\251\271\201\275@\022\006<M\312_\275 do=\360t\376;`\216\376<\030\341\342<\240w\363\274\234\023_=T9\322\274\nc\255=\024Wp\275\225\213{\275\370\t\205\274\000\033\200<H\341\254<\215\215\250\275E\310\223\275\004t\200=\250h\035=\220h\024=\344\337f=P\271\344<\234\2409=\244\227m\275\014wA=\260Y\030\274\200]\350<v\304\250=Z=\244=`]\304=gH\272\275\254\\\223=\240\201\330\273\230\035k< 9\314\273p\356\220=\244\323:=\324\341\310\275\256[\007\275\310En=\272\321\266\2758?\261\275\006\020\001\275\300\010\245\275\254!\027=\030\363\314=\0148D=\340qu=]\270\204\275\024n5\275\304\216$=\230j\272<x\034\341<\200\227\256=7M~\275N\326\227=\312N\300=T\323)=\010\207\177=\340\215(=\244\375f=.\270\305=\354\222\317\274\260n\262\273\340y\216=f\200\303= \372\353;\360&\216\275x,\306\275f\325\232=L\026\360\274~k\216=\370\200\317<\0103\262\275 [\325\2730\352\317\275\270\226\362<d\323\034\275\2544m=W\0174\275\216\220\212=\000W\217:#4\301\275d\211A=\244\3367=\2141y=h\233\212<\346V\264=&Y\223=\214\031\313\275)\266Y\275\312%\272=h\254H=\206\202\305\275\340\313\310\2740\000\217=\020\333i<>^V\275\304$\300=7n\315\275\203g\264\275Z\211\233\275h\334\310\274\224fM=\252\333d\275\370o\024\274\300\242\351\272HQ\002=\324\217,=.\270\223=\202\025\205=\200\327\305\273,\2676=4\327\244<\036\216&\275x\030\266=\216xx\275\300s\311<\254\334\r\275\034\310\256\274,\204\211=\310\230\234=tZ\320\274@\010\246=\026\210\310=\306t\203=\000\301\2249T\307\210=,\021,=\310\210\203\275\0267\206\275$[\367\274d{\262=)D\312\275\370,p=\026\233\220=h\376\273=\314\223\211\275\030\231\233\275t\222f\275\254\227\275\274\240\364\340\274N<r\2758\372\221\275*5\303\275\037\353\235\275\200\332\364\274\014\230-\275\000\212\200\275JJ\014\275h\026\255<\216\210\217\275\303\337\303\275b\233\264=( \317\275\310\203[\274\200\304\377:\344\274\370\274\254\034\014\275\2246\002=nB\245\275\000\242\237\275\276#\220\275\004\272k\275\250Tn\275\250u\203\275Pa\026\274\275\027a\275\272\257\311=H\322\320\274~\334\251=\230\342\213=4\325\217=\354S\324\2744\217\247<\222\326`\275\3507\215=^_\232=\326I0\275@,\332;Be\244\275XY{=\354\317J\275\034\266k=\230\244\016<\337\243\274\275\274\302b=`\270\304=\324;\000=n\341\266\275\341y\236\275\310\313\003\2754\210\257\274\200B\231<\343\003\274\275\210?\323\274:\301\222=\370\337\224\274\030\035\335<\'\211\271\275\234\333\227\275X\024\201\275\300f\350\272zJ\023\275\020c\305= \340q=\330\\\333\274\315\267;\275l\246\304=\354\367\203<<R\260<\341\351,\275|\001G=\216H\225=\034\221\233=p\333\027<\014\203\267=F\2374\275\364H\267<\360a\262\2746\004Q\2758<\225\275\220\356\317=Xx\020= Q\\<\"\276\247\275\361\215\222\275\260\373==\214\267\263<\020(\200\2730\364J=\\\357\251\275h\2434=V\366W\275$\350\022\275\370\251Q=\205H\231\275\370J=<\263\372\212\275\340\223O=\242n\212=\241\362\266\275\340\246\255\274\204T\260=-\250\261\275\014\206 \275j\373\005\275R8\235=\000\355\023\272\250\264\274=\032\353\314\275\240\330O\274\333^V\275\\(C=\3506\252\275\323\006M\275\246y^\275FU\251=\"v\234=\2436\"\275t}\213\275\202\262\243\275\200\300\277<\2004\225=\020q5\275\276\302\230\2754L\035=l\'[=`\300\245=S[\307\275\020\013\246\274\200\363g\274\000\267\214\273,\026\033=\230\370\302=,\224-=H?\210=\310\256\016< \322\300\274\375\310\277\275\305v8\275\\_\307=FB\005\275\235\212;\275\360\201\004\275\377\206g\275,-==@\250\257\274\206G\307=,\365\024\275H\323\363<\002\311\024\275P\216\226\273\230\312\250\275\307\265\271\275H\243*\275B\017\000\275\204+\305\274~>\313\275C)>\275X\235q=PB\222\275\201\367G\275J\320\221=$:\302\274\030\017Q\274\242\277\250=\356:\310\275\000\217\267\273p\240h=J\222\224\275p\034\'<\364\206\032\275\022\002\221\275\232\374w\275p1\276<0C\007\2758\352\270=\214\0373=\376\245\267=\270\250\217\275\264\001\372\274j\017\311=(-)=\224\223\245\275\314CZ=(L\027\274\274\225r=\250\364\267=\214\005\262=\200d9;-\215@\275\216\244\271\275,\266\013=\016\024\241=\336L\203=\260\213\'=:\376\211=m.\262\275sm\255\275\270\346\205<8Xm\274`\014y=L\035\232=\350\217\235<\010r\360<\220\222c<\304\273\036=J\247\267\275\220\306\365\274\376o+\275\210\\\'\274@\315\325<,y]=?\345U\275h\375\215\274\250\273\302<@\213\031=\030\374\270<\354\201\240\275\340\260p;\242\373\263\275\300\025F\273\226%\273\275@G\037\275\020ly<X\322\312=\320\253A<\300yK=0\342y=|\177\030=x\026\272\275\332\037\263\275M{N\275\r\223\225\275\206\246\242=\006,\205\275\262#\272=p[C\274\354\240\223\274\240\325\317\275\356\373L\275\212&3\275\210\030\022\274\230\247d=\250\263\331<\274\355\320\275\334\203\001\275\240r\\\274\300x\316\272\220\273\244=\252WU\275\360\325\002=\255\257Q\275\310{\264\275\266\251\306\275\200\240r;P\313U\274\034\256\220\275\350\254\177<\340\2439=\226\342 \275\304\017e=@\014c\274\035n\244\275\200\002\204=hJ\345<@;\275<@\211\222= \221\247=\235B\207\275\000\004_\274\320\252\007=\200\3477\275\030\330s=\311X\276\275\2565\260=Zp\223=\240t\023\275\354d\300=s\203y\275\371}>\275\360\233@\274\230\022\023\274\350\346\276=\270\230\270\275\244Yi=\000d\326\272h\317\233=|Q\216=\204\217\267\274\016T\232=\350\301*\274\230:>=M\206\233\275\004\325\310=@\237{=:\365\311=V\002\237\275<!1= \325+\273\026\271\245\275\347A]\275\216\310\200=zh\226=>\032\312=\0212\302\275\014\343\"=\214\207\307=\210\310\272=\016\276\302=(1\317<\3002\255\2752\211n\275]M[\275h+\333<\3207\215<xr`=\034i\223=\3442s=\220\221\263\273\260B\260=\000^*\273(!\005=\334\371\201=\000\226\262<\330\226\347<\346\304\220=\234i\"=\202\017\231\275\354\355 \275\200\354\375\272P\257$=\013\2270\275p+\205<xe\024\275\016\223\251=\320\245\362\273@\312\262\275\020\302\005=\306\244\252=vZE\275q\355x\275h\022\215\274N~\222=\227\246\300\275\315\225-\275\224\305\217<0\325b=t\001I\275\020D\230\274<%\250<\330U+=$\364\252=\371`\215\275uT\311\275\002\242\030\275\205*i\275\\\253/=@\215\327\272\260N\334<\230\3463\275L\372a=\330\330~<\222\310\264\275T\357\213<\206\334\275\275\276\364\305=\220\"\262<\304\272n=,\004\213<Vs\320\275\264J\024\275 \364\t\274\356p\251=\036R\223\275\024\343g=><\222\275\222\265\237=r&\003\275 \363o;HZ\220\275x\220S=\312\230\221\275\312e\306\2756\373j\275\006\330s\275\233~.\275^\231\236\275|\362j\275\361\021\320\275\305\265e\275\240h\177\274\220#\241\275\000\210?\275\377\330D\275(nm=@O\214:\272^\211=\370\367\306<\254\224\240<`\020\016\273p\370\036\274\364Y\252\274\004G\355\274\245\315\232\275\010Oa\275&\321\267\275\2607V\274P2\220=\214\237\302\274\004E$=\037\330\314\275\320j\327\273\000\\\327\274\003\t\225\275~G\273= N\365<\300\223\237\272\370$\257\275\340\252\027\274\000\307+=\352\321I\275\250>g\274\026\266\201\275\340U\037=F\252\241=\3444$=\276\030\220\2758b\252<\014>\247=\020\340m<p\255\301\275\320\032\177= \214\032\273\350\007/<\350\353\213\274\020\333t\274\030\277\351\274\030d\006<\004+\252=\004S\205\275\374\006)=\020mk=H\222>\274\260\306c=\260a\256=\032~\261=p\274\324<pi\277<\354\352P=\270\223s=\004L\031\275p\303\315=\340F\247\275\250l\200\275\023\0352\275p\274\031\275p\340\222\274\220\0334=5\371J\275,\2565=\276w\223=\256E\213=\037I\317\275\320\234\245;\320\220<<@V\220=\004W3\275>\330\267\275@\0135\273\224\336k\275 :\203\275X\214\027<\374E\r=GY7\275l\226\007=\354SR=Z?\263\275B\010\265=Z\300\213=\257\023\311\275h\255_\274\344\033\237=\214\220\243=\360C^\275B\355\211\275\\\276\240\274<e1\275v$\311\275|\376&=@q=\274\230L\022=Wv\311\275\2240d=\372b\236= \217\302\273\000-\224;\274~\223=\002\360\305\275@\310,\275 \212\001<`\317+=pyK<$>#=\2053\310\275\234\307\245\274,<\227<6(\255=>\361\320\275\234:\234<\220\236<\275Y\266\277\275d\327{\275uw\'\275\225\022\320\275\034\253\006=\374\017\271\274\320}\001=P\246\276=n^\224=\004=\026=\304\335\252=\376\027\202\275\256\315\305\275\260\027\326\274N\r\312\275\310fJ\274\014\325\224\274\026K9\275 \261\351<\220\0273=\254\202\206=\020v\277\275\343\034H\275\322\035\247\275\260\037B=\343\324\262\2758A)<\020hK<\234W\271=<\301\312=\225\225i\275\360\306\270=\3042\225=\367\357\236\275\020h\332<YPI\275 )\325\274\020\212\221\274\244[\024=`\024\247\273\352\324\277=\200\215+\274,U\001=44\211=\034\251o=r\243\306=\020\355\333<\324o&=\300\005H;\234\005\321\274\022t$\275\220{\021<\270\026A\274\230/\202=o\225V\2752}\261\275\200\207@\274r+\220\275<n\301\275\262e\r\275\000\007\310;\3008I\273\340T\252\275\312|\243=4z\037=00\273<\330E\206<R\316\207=\300]@;<\372\267<j%\246\275\353V\304\275t`\213\275\232k\233\275\335\032\224\275\350)\245\275,\203\227\275.,\233=\200\211\263:\206[\215\275\004\266q=\240x\301<I\311\307\275a\274\274\275\306I\242=\340\177\314<\324~(=~\260\254\275`%\"<\030\263==\030w\316=\306\245\226\275\372\2648\275\374\356\266<\342)\305\275\252\355\226\275\224\372\302=\220\332\275<,\213\204=\246M\206=\306\366\314=\320y\003\274\010k\016<\266\310\236\275\026\033\303=\300\357c;\304lB=\232\373\035\275h\3508\274fr \275\370\274\350<\270\242\203=8\003=<\274\277\204=\177&\317\275E;x\275\014c.=\320\315u=\236m\007\275\340\364\254\275\242\324\016\275\036\370>\275X\320\300\2756r\243\275\354\025\277=0K\312=,?\200\274\030L2\274\204\377\022=`\023\212=p\260\002=\224eB=\245\243\215\275\200\253\265\274`\210\365\273\002\303\013\2758?z=\355K\225\275\264O\211\274Uh\256\275\264X\026=l\340\234=hM>\274\004K/=F\377\255=&\0249\275\342\310\034\275\034\343w=\003av\275B\301\213=@\303\303=\200\262J\274\014U\232\274\354Wf=\204_\r=\317\214\233\275\346LB\275@_b\274\005\224\254\2750\347\341<\220\013[\274\3724F\275\377p\233\275m\364\262\275\351j\204\275\004\367\201\274\351\006\270\275U\250>\275\246\335\212=\346M\270= p\211\275T\246\275\275`!\255\274\320B\256\275\244(&=\\;\270\275\2043]=f\333\214\275&?@\275\254\207\203\275\355\376v\2754Q\016\275h7\226=@\252\227;\340\267\275;v\254\021\275\3303n\275\\\377\323\274\0003\2609\033\364\222\275\000\251P=\233\305h\275\020{k<\254\"\023\275\005@\304\275\340\031\373<\334,\236=\014\316\250<\330\366Q=\264\002p=\301\342A\275\354\227\236\275h\211c=\250l\317<4\247/=\014W\340\274|\200\246\274,U\365\274\230\331<\274X\213\277\275\374\327\205\2756dN\275\371I\265\275@!\006=\220\305\\=r\230\243=\200\334\344\273\320\317\014<74\201\275\320_j= qT=v\000\262\275\363\363\217\275d\253\223<\354\036\312=TX\024=\254\017\007=\344\234\252\275\000r\271\271\314Ii=P)\222=\344\265\265=\023v:\275J\031\277\275D\203\256=\250\013\001<\215\365\210\275\235\204\217\275\342\023\217\2754\314x=\225@\232\275\353\364\275\275\210\325E=2u\000\275\035\037`\275\320\205W=\260\013@=X!\257\275\274\270\244<\356x\273=\244\261\233\275\300\"\262= \372\316\273^\332\224\275L\276\277\275\'bB\275\030\242\275=\210=r<\310\214\322<\220s\302=\035\004b\275\326s\263=\345\020\272\275\026L\226=\344\003\305\275\216\272\217=\2745\246<Q\305\220\275\330-\344<\002\027\313\275x\301\007=\310\033,<\252\210\010\275@{\241:\266\306\245=\210\343\325\274\344z\260=\276\305\267\275\300,\022\274\020]D=V\362\204=A\324^\275\342\323\244\275\264&\245=\304\"\261\275\274\227\002=`$\004=\260\260E=\000\321X\273\020?\312;\020\320\007\274(\323\206\274\274\311\257\275\350\211\224=\354\'8=\360\\\335<\212\3456\2758\305\241\274<\267\243<.\263\213=\255\205\304\275\270!W<<\265\305\275(\t\235\275\340\244\272=xf*<x\027k<\024{\261=|\225\255=zo\177\275\014\032C=\263\220d\275L\364\234=\374EV=\233\361\305\275\000\242\n:l\306O=,\'u\275\300\n\026\274\330\236m<\000\225<;\217\347~\2754\327\236\275\357i\231\275\227\200\207\275\200\315\255\274\260\234\337<\n&\202=\200\307\262<\236\376\206=\300pI;.\026\203=-/\263\275\026I\317=\317\334@\275\200\024\327\2727\022A\275\3548\260\274\320S\204;\314L\226\274\020\215M=\362\276\267\275\270[B=\260~\210\274\260\364\307=\306%\316\275<\t7\275bb\224\275\314\371\n\275\376s\217=h\366\000\275\327\024\302\275\222\020\212\275\000\025\324\272\000\\\226:\260k\266=\010\317\026<@\307\265\274\223\013\265\275\360*\224=\264i\202\275T\333\275=\010V0=0\340\244<f,\260=D\0141=\000\345\211\273`O\035=\247N\233\2750\000\264\275/\377\314\275\226)\301\275\020\255_=\356d\243\275 \317\310< \0007\274\200\\\254;\017\262\216\275\014\266\232=\020\036\246=\271\303\253\275f\224\226\275\326\020\245\275\344\256\213\275 \213\251;\2705\356<4v\006=f\026\256\275c\237\271\275\220\310\234=@\375\220=\204\356\000=\334\331\201\275\334\255\360\274:\327\254\275\346\267\216=\000l*\271\"\235\206=\350\375\030<\204\327\251<\000\330\347<\337\376%\275N\017\305=g\223\216\275Z\316\223\275\272~\307\275\2302V<*\035\232=8P\244<\355q\216\275\320s\265<\230\340\341\274~\266\313=P\340\275;<\'p\275\000l\203\275\234\263\020\275\330\365\205=\036\317\301=\262\327\245\275\240\217\201\275\000I\025\272T\035\'=:D\216\275\301\346\265\275\320\215A\274\317\301g\275\220\313\275\274\306?\256\275\370\254z\274.I\272\275F\026\227\275 \334\305\274 j\336<p\037\345<\252\231\304=\257B\274\275\340\270\305;\304O\227<@\n\271;@c(<\300u\031\273t\021d\275\344\000\235=\344\251\021=V;\303=\327\023\244\275\016 \006\275\005\277s\275\372\t\211\275\\\267$=\333\334\202\275\010\024\355<\245\370\223\275x2\022\274=\237\\\275\320\254\213\273\344\264\375\274\342\247\242=\240@\330<\350Hi<\214,\032=\240T\314\273\3007\366\274+\275\212\275\334\345\205\274l\022#=\354\033+\275\020\336}=\263\376\210\275\200#\037<\366u\277=\274\226{\275\260\336\261\275\312#\215\275\234\t(=\202\317\303\275X\347o<\030w\021<0\277\001=^\020\226=,\030\245\275\230lf=T\360\025=H\0143\275|\017\230\275\354\244\230<\302\226\240=8\212\221<z\252\301=(L\260\2746\316\223=\346\232\025\275\022\250\211\275\332\354\207=t\033$=\230\365\274=Py\270=\004\023M=h^c\274\260\3355=@nG;\272\177\301\275\310\003\t=\300:\277\275`\305`<\224\265~=\350S\033\274h=\254=\177\3046\275F\347Z\275\000\336\210\275p\310&\274\324)\217\274\330\367\216=`B3<\000\035\232\271 \363\372\274@\353]=\000\311\177;\370|L\274a=\261\275\2347D=\370\335\230=\241y\241\275z5\022\275\324O\002=T\233X=R|\253=`\273\022;xW\336<\025Z{\275 F\037=\340\330\325\273t\2368=\362d\265\275\310\264\007\275\360.g=\024-\235\275L\357|=L\356`=.\353\214=\t\267\267\275/`\261\275\352\355\247\275\204N\305\274\370\225\025=\277w\244\275\0007\261\273\250b\003\274\200u\207\272b\000\203=\026\021\215\275\014\266\253=\352\'X\275P\312\321;\313\356&\275/\205L\275t\n\214\275\200\n\025;t#\237<\200\360\034\272\377]\263\2750\365\257=\246P\236=h\255+=$\212\224<\200oU\273\370\005\274=\307\014y\275\240\031\315<t\224\022=\240\247U=&h\265=\314\263\271=h\324\350\274@\201\336:\251%\251\275\205\222W\275y\333_\275\204\337w=\260l\037<\324\360D=\340\261+\275\264?\240<=\231\214\275d\232S=\250V\275<\260\017\003\274$74=\320\374@=\3400\250\274\000+(\273\310Y=<\372=\t\275H\033H= \346B=j\203\200\275\030\\\300<l\205\210\274\240ZG<\323\204\237\275@01<h1\365<\260;\334\273\234n\260<^\325\201\275\264\240k=\261LC\275\030\270G<\360\231\023\274\360\013\261\274\230\222m<\204\314L=K{\232\275\030\352\201\2746\257\307=p\016\231=0\014\356\274E\"\261\275\200?\226:\0239\312\275\360U\243\275\330,q=d\272l=\222R\233=\260O\267<\220G\251;\241\377\261\275\236\027\304=\200\372a:\014\2445=\\\001\230\274n-\227=\337\272A\2753\325z\275\320\262\244\274\261!\251\275\360\247\303\274V\335\310\275<e1=L\342\010=0j/\274>\337\320\2755r\177\275l\263o\27554\254\275\310\364l=d\347\013\275x\325\221=d\020\256=\033s>\275\324*\200=\240T);T\214p=\374\277Z=X1\323<dP\262\274H\234\201\275P\350w=\'\2052\275\324\361\265\275V\005l\275\020\351\022<\000\n\032\271j8\251=\340\344O;0\277\002=F\356\216\275\200q\301\275\204x}\275\000\334\220\275\260}\247;\371$\204\275\244\352\233\275v\0247\275\036\301\277=\300\234\263<x\372X\275\030\n\021\274\213q$\275\034\205\203\274\200B\221;\220\330\212;du\236=X#p\274\000[\300=\320\376\275\274\354\027\274=\001\363\224\275\354\246\315\275\332\233>\275\374\365\260=\363z\243\275\277\252\317\275hl;<\020T1\275\350\253\206=8\361l<\020\210\273<\270F\037\274\\\003\004=kB\273\275s~\270\2750\317\007=\210\325\253\275\226}R\275\266\363\262=\202\242\312=\000O\032\275\330]\245\275|x\233\275\022\243\205\275T\331\262=\277\315\255\275\020\263\013=\256{\202\2754\273S=\306\301\246\275|_\010=z\206\256\275\350k\276<lY\273\274\353\206\220\2756\203\217=\236\310\273\275\256]\223\275\225\222\235\275\304\217\271<\300\375p=FL\206=\340q\303;\2201\203;\312h\244=kx\216\275\310mo\274P\237\\=\260j[\274<k\004=p\221\343\274H\302H=e\331l\275P\200X\274\030\316\353<\341\036G\275\364c\227=h\377\302=\300V\205\275qp\275\275\330P\005=\214\274 \275\230\030A\275\004\024\216\275\367\336\256\275\320\n\222<\024\365\265\274\\N6=fg\217=\370\312\357<\270[\342<Q\271\234\275d\270\026\275\300\177\024=\330\356\256\274\020\350#=P\255%<\250\213P<\'\360\226\275\234\262\343\274\310\202i=\224+\316\275\320\022_=\310\275\240=x\243@<\322\325\234=\200[\207\274\274\230\222<\000q\2269\330`:=<;\027\275\006\217\200=P\302B=\0344\232=\274| \275\256\324\301=\274\221\303\274\000\324\271=3D\241\275D\316.=\224\202x=\362\276\314=\230\213\'=\274\264\235\275\340\224\231\275\274\255u=\024p\037\275\250\\\037=@\377\237<H\333\202<\254]\005=pK\223;0x\374\274\240\002a\273q\253Z\275\020\273o\274\266R\254=\010({\274.\260\224=v\\\242=^\377\202\275\020\263\277<\2448\222=\210F\232=\"W\200=8\364\201\275\264\255z=\332<\233=N\360\230=hLO=\\\252\260\274\000\352p\271\224,\244\275\376n\314=x\354\214\275\200N\327\272\256\346\253\275\000\344\274\273\362\256\270=\230\020\306=h\363\316<Ybr\275\341\201\307\275H\305|<\242\376\003\275\330d\200<\224\215\026\275p\373\022\274\364\360\250\274\014\202\014\275\000\211\232<|\242\207\274\210\200\017<>L\244=4\r\274\274f\337\311\275\372\217\206\275\356\267\232=\240M\320;\020y\220\273\340\3051\273\320L\017\275X\230f=\302\244\235=\366+\267\275\307\331\226\275\250\023\203\274=$4\275\270\271\246=\340\010\306<\266\001\304\275x\257\036<p\231\006=OF\255\275&\212\312=\372\200T\275\342\321\246=\243\312\220\275H\327\264=\352x\002\275\332\340N\2756\215\223=\340\033x<xm\230\275zI\261\275\014r7=8\371a\275\360H \275\336\222\266\275\250*F<(\237\276\275N)\317={\007\260\275^y\203\275\262\026\262=\347\274\256\275\253x\276\275\276\t\\\275@\003\274<`Z\246<\354\231\253\274DQG=\332\312\276=\343\354Q\275\210Y\352<`\207\206\274\3403c\275\372\265\210=\2349\312\2754\204\256= N:\274\036\024<\275\026\262\205=$\222o=\270E<=\210\366i<P\3309=\2308\363<\030\"\275<\336$\000\275\230P\026=\214\335\344\274>\373\306=\300\000[<\352\202\206=\000\035\356;\270\006O=\202\035\205\275<\365\254\274}\317f\275j\345\206=@t\314<\310X9=\250(P\274@je;pHK<\360Z\212=\\\032$=x\335\317=@\267\217\272\334\n\247\275\234\302\017=\344\264\r=\215\311\320\275\240\245\303=\310\374m\275\0209z=\270\301\022=P\207\311<\244Dn=D\302\005=\320r\214=\220F\222\275\324W\244\2748!\036=\341\303%\2754\217\354\274\240\363Z\273d\027\001\275\270 \251\274.\256\006\275\266\251\271=\324\217L=\030B\343\274\320\2400=|\245\027=t\346\311=\210X\225=\207\260\312\275\340z.=\235\271\237\275\300eJ=0\272\350<\016\026\257=\344O\254<t\353?=\346t`\275`G!=X\225i<0%\r=\233\325U\275\254\327\266\275\240\275S=\034\255\226=\374\026\313=\010\014\310\275\030\n\002\274j\n\231\275M\3122\275\214S\003=8\024\275=\320\276\016\274@\332{=r\263\231=\031\243~\275\333\244\311\275\314\254\231<,\325\025\275\374\364L=\250T\305\275P6%\274\314\002\356\2748\nQ\274\214\305k\275\240\316u;hw\307\275\274\275?=\0202\307\273\320\323[\274\020\363\262\275h5\230\274\214D\260\274\346\245\241\275\370\302\231\275\024\342*\275\034\365\245=x2\300\275\210\376\323<\3242\270<dGR\275\366\236\255\275\344fY=\000u\201\275\314\262\257=\000\202\030<#\317\315\275\313\250t\275h9x\275\330\232\036\275\253\236\227\275 @\235=X\363\206<\314\264\323\274\342#\247=P\033\257=<\266Z=4+\366\274\000\nG=\204:\272<8\234_=\005J%\275\210N\026<\202\260\272\275\030\365f=\222\260\232\275\270c1\274\236\270\263=n\216\277=\300\006\336\273\257\374\320\275\350\314\372<\360\261\232\273\242P\306=\3719\215\275UxR\275X\331\270\2748\275*\274TB\250=<^u\275\236\245\306=\2002\t\272\343\227f\275`<`=\014\334~=\340P.=\252\246\223=\226\"\277=\260/\304\275\250g\226=\027\211\313\275\000\037\350\273f\003\264=\340Pd;\374>E\275zh\203\275\350~T=\3044\223=\350\351G<T\356\026=\240&\325<&\354\203=\250\032L\275\300o\316\272\320\230\305=\354\273@\275\250\236\243=8\027\233<\000\247\255\273}M%\275\3470C\275G+H\275\\\007\240\274\360J\246\273J5M\275(v\n\274\032\362\311=\020\375\327<`\364\312<<\314F=\355\177\265\275\235\2538\275|~}= \004\261=\214\010\n\275\274G\212\275\370\027&\274DI\336\274~Y\201=\270\331X<\270\0248=\"4\031\275\2109\357<\034hD=<\273\177=8=\177=\350\255[=\320\217\350\274\240+\350\273\n\270\305\275\3770k\275\330\257(\275\310\232 \274\240%\376<\334%\231\275\344\372\253=\004T\207=\244>\243<\006\020\204=\242\205\241\275\270]\267<D\027V=\235P\205\275\302\317\251=\360m\014\275x\r&\275`\017\036=\365pm\275\354\314\026=\322`;\275@\0017\275\230\257\310\274vfz\275\356|=\275t%\256=H\221\356<\354[B=\2206\000\274^1\257=\325\017i\275\336;\216=\2321\256=\317S\277\275\004u\323\274P\323\310\273\326Xy\275x\223a=\340\366!;\272\036P\275\330\177W=\252:\213\275v\252\271=\236\352\216=*\215\212\275\002\256\247\275)t\262\275\352C\220\275\254Az=\030\243y<\034\240\211\275\240\207\345<L\257\233<\000bQ\271@y\253<|;\032=\200\334D=\340\234\221=\210\200 \275\342C\216=\000\337\010:\034\215\217\275\200\256<\274*\254\304=\016\315\263=\200&\274=\220H\306\275\320\032\366<f\340\207=|\363\251\274\264\034\227=4\366@=\\B\013\275\300\3468;\220\237w<|\374\252\274\020\353\251=L\213a=\330\177\350\274\346L\223\275E\267\254\275\302\316\247\275\"\301\203\275\n\240\307=\023\032\223\275`\rR=|\351\307\275\224\214\274=4\n6=\360\266q=\000\010\352:\002X\031\275P\374\237;\200\305\022\273\327\242\211\275\370\337n=\210\332\202\275Alg\275\371\201\201\275\306\325\202=\350\300\304<C\260\233\275\210\270\271=4\270\033=\"~\005\275\000WI\273\034\322\n=DJB=\360\363\375;\020\030#<R\255\236\275,\241\204=^\2377\275\374\344\r=T\244\266<\345\317f\275\020\255\320\275\000\341Z\274\222\024\225\275\215hq\275PW\342;\310\213a\274\360T\234=\224\322\266=\210&\343\274\320]\242\273\324\247\216\275\200\300\274\275:\267\240\275h\226\003\275\240\356\236;\270+\217=x\244A\274\230\354\262\275\\z\222\275\240\317\217\274\004\316Z\2758\"\245<wDY\275\004\024\306\274\204\000\265=\350=\313=h\350\255=<\021t=\217\223m\275\310\342n<<\374\233\275\2205\206=\016\001\213\275a\014\247\275\030\032s=\372\014\315=p[\220=\330g\n=\200a7<\274\225t=\354Et=\217-D\275\240~M=\276\203\231\275\000@\274\272\027\262\'\275\326\333\224\275\376\212\005\275\037\304\235\275\320\301\233;\347\372\301\275RX\240\275Tg\273=\364f\217=\034\255\200=\255L6\275L\226\004\275 \002R<\024\026+\275^Z\304=\350\354J=\316\224\215=\316\n\004\275\362\036\317=\310\010R=\\\346\247=x\265\020<\034\346\234\275\254u\225=\374kc\275\336\213\002\275\210\363D=\320\370\255\2736\206\241=<x-=\342\237\210=\304\244)=\023\023:\275\010SG\275\220T+\274@\222);\200F\320<\200\335H=L\336v=P\211\362\274FY\260\275\\!\267=\350[\300=\220\305@=X\\n=p\226\215=\202a\214=\362\027\244=\0236\264\275*w\230=\000\023\235=\014\212c=\010~\263\274D\313\007\275\360h\354<\334\273\315=\242>\217=\340\0028=l\"\245\274\332\261F\275\377\373\302\275@/\360\274\014-\212\275\234\376\254=\000\217\300<\034\351]=\240\234\256\275\024w\022\275l\002\241=\245\025F\275\240\231c=7F\246\275h\226\343<~h\307\275p\004\000\274X!\353<\200\220\331\273H\257p\274\024F\251=\020\344\205\274@\270\211\2758\374\246=\000\n\347\274\332\026\315=\350\372\274\274(\025\\=\305J\312\275\334\231\272\275\020\210\001<8w>=x\265[=\310N(=\014+\211=(@4=\356\301\212\275PmQ\274d\210\252<\324\016>\275\340\222\242=l\023\303\275\367\027\236\275R\337\006\275\256\361\206=v\242\232\275\3245*=\033\325w\275\274\010\031\275\353{(\275\010s\257\275\330\332\271<p%\230=\330\016\302=8\357d<\0209\260\273\246k\234=\220\323y<\264\212\256=8\266E=\010\"\340\274\235\340\266\275T\257\254<\324\317Q=\000\356M:\030C\'=\374;\211=\200\376\020=6^X\275<\027N=\210\340\257\275\030>P< \2063=J)G\275`wC=@\322-\275\340Q;\274\230@\240\275\034\3270=\370R\r<\240\013\005=\000CX\273\201;[\275\205\314\300\275\234\033\204\2750\014\231=\264\336\376\274\246b\213=P\271\313\273U\356:\275X\233\232=\306\306\017\2750k\'=\340\345s;\262\246\233=\010\317\306<l\251\020=\221\n\177\275\270\267G=\033\0300\275o\333\277\275\035 \266\275\320^\251;0\240\254=\376\240h\275\240\333\322;4i\020=\200w\261:\230\321\301\275\320V\207\273X\247N=;\327\302\275I\037\225\275\215\266\262\275t\023\245\275\332\032\241\275\200\025\200\273w\021\251\275RM\245\275lY\003\275$e\250<\274\021\032=\360\267\022\275]\035\253\275\216\227B\275hk\032<\370\006\326<P\333\335;\2008\250\272\236Y\254=\017\037O\275S\307\223\2754\362\205\275\220aj=\301\212@\275 \302\355\273D\3366\275\330\313\300\275\3368\320=\270N\320<\262,\313\275\\46\275\245\315q\275^\314_\275n\316j\275\360M\315\274t\345\303=4\006-\275\340GJ=\256\021\301\275\360v\021=\200PS=\230\345\325<\277\006|\2758\226\311=\220#\277\274\220/\214=p\253e=\250\314\017\2748\324\036<\347\370\222\275\304\274k=\360\324\371<\314S\317\274(\330\024=@B\027=\214\331\246\274\210\031\005<E\307y\275\252\266\311\275\323j\203\275\213\t@\275\270\227+<\244\351\366\274\350S\370<\264\t\270\275b\376\271=(\336h\274\220\313\210\2758\001\024\275\264\226\006\275X\261\211=\\\337\034\275\250\000\305<HBl\274\220\340\022=\370\304y= hn\275\\a\312\274b\246\275=\320K\243\274\000M\212\272\277Qo\275L\211L=d\275\275\274L\006]=\240\250\035=\250\3019\275R\264\204=^\306\217\275\214\307\372\274(P2=\350\235\177<\312\371\207\275V\244\210=\360\010\010=^\330]\275P\335\030=$\201\302\275\014sZ=x\250\272=\000\323\2559 NU\273\032\317\265\275\234m\260=X\202|=\300\'\r\273\370:\267\274\364?\214\274\0244\331\274`\266\367<\311W\273\275\032s\316=d\200\270<\374`\020=\266\306\256\275\014b\004=\302\013\207\275\362\001\271=\272\327\236=\031ut\275p\034\205<\200\303<;\215cU\275d\271:=h@`=\020dB=\322\274\272=\360a\334<\376\026\307=\230\306Y\275\270%\222\274\200)\365<\220\250O<nm\257=\302\233\305\275\320\010:\274Jm\317\275\320y\007=\364\314\326\274 $?=R\001\035\275\006\316\215\275`\327\375<x\342J=\020\006W<X\034\212=\330#\352<R\036\257=\212\352\314=\200\313\365<\036\344\263\275\236\204\003\275L\231\241=\2149t=\300}\035\273\270t\271\274\354$\256\274X\200\306<\320\223\304\275@2e<\234jW=$\213\261=\260\212\271;\010\235\010=\222\201\000\275\240Uz;L\020\035\275\240 ~\274\030\371\266=dK\275\275ph\215\275Ix\313\275\241h\221\2754\'r\275Xn\020\274b\356\265=\243\227\251\275\310pY=\374\3755\275\361a\251\275l\252E=\224\273\003=\214\377\313=\"W\316=<r#=|\342\211=\254K;=\000j\205\274\330\261\024=>\374\224\275\264B\020=8Y\226\275\2122\206==\002\236\275|\020Q\275D\271u=\010J\245=\220\256\330;\020\010\325\273`\'\341;0L\207< \177};T\260\277=P4\352<\220\271\211;xh+\274\274\031X=\014\334\236=\364\357*=\342\256\300=\tr\260\275d\200\177=\3438{\275X\375\370<\330\252\021\274\026\026\276\275\000\316~\272\202\240\276=t\220\267\2750+\320<`\337\252;\3046\241\275X\241\014=c\026|\275 \033B\273\"S\304=\216\031:\2752\251\314\275\200[\310\273\025\007\261\275\200\262\325<\034\032$=\250|\020=\360m\314=ha\234=8\247a=d\367\'\275\026f\201=h\276\207\274\036u\032\275\3349\272\274\2002\243\272J\233\300=\244\014\233=\200\303>\273\214\370\304\275 \265\242=X\304a=\200s\341\273\\L\213\275\2565\035\275\246\032\234\275\216\312\311\275tN\324\274U\034\201\275\214vA=\026\362\203=\234\264\"=\346\202\265=\376\022\263\275\246\251\211=4\234\314\274\310\204C<b\244{\275\200Q\353\273\220.!\274\035\2542\275\334\251\252<D\341\315=\320\364\271\274.~\202=\355o\310\275|\231}\275\017\267j\275H\357\263=6\311\n\275Sf\270\275\260\021\362\274\340\222\352\274\216B\240\275D\034\213=\\,\243=z\242\276=\216]\222=\327$\270\275x#l\275\310\362<\274\266,\242\275\014\252E=\\4\255\274`K\231<\250\366n\275\354\353*=\200\373\327\2722\002\311=\200\035q\272\364k1=\350\213\267<L@\215=D\377\016\275@_\014\274\230WT\274\315ms\275\324]\254<\3404\231\274\360\315\367\273\360B\351<\344l\272\274\241\360U\275P\237\001\275\000\361\373\2742\001\222=,\327\024=`\317-\273#\013\262\275\360\372=\274\200\372\032<\204\246\314=\342$\211\275\220\203\371<\000IY;\330y(=\242\263\220\275\300\002\317\275\302\271\253\275\210\013`\274\350\346\'=[\370\226\275\360\355\333<\000|\3408\204I\313=<\025-=\010\246]=\302,\261=\002\244\203=&\255\256\275(\233\234<\214\260\234\274\260o\214=\350R\031\275v\330\233=2Z\206\275j\032\213\275@\217O\274`\003j\274,\335\321\274\227\206/\275\234\200{\275\030\037|=\341Qv\275@)\364: ]\214=\242\002\276\275\320}H=J\026\225=\342\271\314\275%\366\252\275\252\352\223\275\020\372 \275\270v7\274I<\247\275(\314\r=`\t\366\273Xy\215=\364\332Q=F<\265=\036n\202=Pg\177\274\332\022\212\275\\x\223\274\2509!=\322\343\232\275,9\247=\230Bp=T\0363=0y0=H\302\334<\220\332\203\273 \370\231\274\225#z\275h\370\211=\324\346\204\275\334\357\324\274u\343\316\275JB\315=\362\224\316=\330\303.<\232?:\275\024k\'=\350\272W=\036\305\227=Dl\256\274h\2355=tz\223<H\272B=\314\321\315\2748\302\301=\032Y\022\275\336\356\222=\314m\302=k\220\273\275,H\271\274\204\355\036=\317QG\275\224\344#=\324\031\033=\200\312\231<\260\037\001\275\230\376A<\227\357[\2756\240w\275+\\\275\275p\317\305\275\366m\233\275\030\335\366\274\3707&= \330\r=x\336\036=\227\267+\275\270X\307\274<\370\r=\020N\373<\334\343\244\274\\\273\272= \223\'\274\340\023K=XU\337<\310\n\321<\336\224\317= p\354\273\000\327\264\275\240\005\237=NX\275=x\313\022<hg\310<&g\027\275\000\340\251\270\364!L=X\323\247<\340\214\023\274\230\nz\274\211\307\232\275\200\\\241=\314\311\355\274\n\313\274= \237O; 3\035;M2E\275\300\270q<\236\004\250=)\345\247\275\300\261\227\274\230\242\317<h\254\352<$\367\272<\024\240n=05\314=\333\231\270\275\370;b=t\312\255\275\234\236\"\275|R\267\274\370\265\037<\314=\200=\300Q\310\274\212\225\264\275\016\271\026\275h\245\022<\324{\261\275\342j\255=\246\003\210=\306J\237=\327\2642\275\027s\232\275\220y\205;\305\273\273\275\230T\262=\352\354$\275#\035S\275nuj\275l\302^=\260\205\246;4\257\272=R\376\242\275\260\272\267;\004\261h=\270\307\201=d\350\255<`\216\340<\200iY:\342\033\241\275`^\300\274\230\226\277\275\353.8\275\033\016A\275\244Ry=P\347\327;\350J\225\275\340\362g;\310\341\023=\300\331\217\272\250\326\214\274\276\344]\275\320\364\021\274]Z;\275\200\006\273\272$\251\n=@3\337\274\300\250U=\2406\227=\320\316\342<p\226I=p\016\367\274\270j\'<\230\014\301\274j\010\314=\270\264L\275\000\240V<\364\370\003=\316\277\253\275\254\217/=0\037\230;\244\3742=\032!\016\275\346\345\203\275PXp\274|\265\221=`K\255\274\310\205\342<\2444\266=\274\341\223\275\000\271;=<\305I=\034\010c=\204\246\334\274ph\201<0\'T\275\276\205\025\27525\317=\244\303\204\274\306\030\317=q\325Y\275\0206\007<\276<\200=23\252\275zh1\275\000I\256\274\260\'1<\200Z\230:j\230\217\275\020#6=\340/ =\354w\240\275\320|\372;\240\321m;\356\342o\2754Y\365\274\273\222\276\275\020)\227;\240\3313=\340-\275;\270t\363<h\213N<\234\316\204\274\020D\352;\360\336\334<\010\312\016<\256\361\223=F\334\275=\310\003\251<(Yr=\202\004g\275\000\177\330:2E\200\275T?\211\274T\236\202\275\350\370l=\372S4\275\\\336`=\344\347|=\3505\366<\370In=\272%\227=^\200\212=L\237u\275\315Uy\275\376\355\235\275z\356\301\275\240Y\357<\373\347&\275 \233^\275\260l\334<<\212%=\305W\206\275|\307\341\274\252\272\214\275\306u\260=\243\352o\275\300_\251=\315\235\227\275\346\246Z\275\326\357\013\275\314\252\257\275\326\037\003\275\230!\017=\244\213\217\275`\021@\2732D\224=\217R\320\275\010D\017=\3260\244\275={n\275x\245w=p/\032=\242\345\014\275\310\037O=X\342O\274\300-\222:\342\321L\275`\0236=,#P=\234h\230\275\000\322\371<\207%\317\275n\263#\275\360\225 =A\t\'\275\377z;\275\274\362[=\210\305\235<\002\330\242=\320\263-=\260\024\271;\230\262\234\275X\3366\275Z%\273=4\027\213\275\300^\004<\004z\273=X\007\246\275d\301)=\020~X\274\004\311?=\3138\270\275\010nW=\211ZO\275\236\311\313=@X\325\273b\020\250=\234\271F=\256\263\315=\260\357&=(\302(\274\"Q\224\275h\004\231\275\334\222\236\275$kO=\'9w\275\300\341]=\301\340\204\275|\210\"=\371\020\231\275\020\2220\274\024\351\257\275\300\002u<T\367\267\274H\334\243=\260\213\344;\210\213y=\330\3732=\211w\270\2750\240\314<81\027\274\216\374\033\275\312V\306=\202\356\260=\037\275\255\275\020x\355<\030\025\031<\274\201E=\\\277\257\274\220\356\364<\255?D\275P\255\263=\256M\201=\220\021B\274\272.\252\2750a\264\273@\307\301;\020\337\222\274\026l\307=\024\005\034=\204\3112=\210\3024<\352h/\275\306\0132\275,\256G\2758@\n=\260hw\275He\240\275\220\330\206<p\000\017=\0147\331\274\240p\177\275\370D\000=|\246\246\275\354N\207=\310\327\201<\360\305\373\274\022\354\010\275\220R\225\273\036\363\217=\202\344\261\275\314\245\272\274\200\314\246\2750l\244\275\320\215\246<\210\311s=2r\222=<\335\215=N\210\274=\327~\226\275\000,0: \266\226<\324a\035=\241r\255\275\352{W\275\354\032Q=\004\003==\003,I\275t\024\272\275\357D(\275~\'\212\275Dm\301=\033\032,\275l\354/\275 Y\372<\\ia=H\373\200\274\214u7\275\300\232\305\2728UB=\240K\351<\260)\312<\300\262\240\273\220\340P<\030`\312<ZH\272=\340\236\020\273\340\327#;\204\210k\275\034_\255\275\220\240\317<\302a\301\275\332\360`\275+d\264\275@\032\325\273pf}\274\224\237\235=\214\374\263=\354+\221\274&\344\320=\244\336\013=\342\244\262\275\020_\025\275\\,\227\275^\363\233\275\000\254\341\271\350\004\004=M\324r\275\366\013\220=\233hp\275\\\335\241=dP\n=\362\240\210=\216b\300=\220\357o=\250\354\205=t\241\207\275\240\213\303;\252\274\177\275\017\013\300\275\341\314\304\275\236\264\310=@m\306=\220\023y=0\353\253; \376\367\274\344\264\375\274\312\357\242=\020\230\353<\247\247h\275\360\374(<\220\017@\275\254u\224=\344\345\246\274 >\201<\324k\240\275 @^\274\220\n\221=X\303\345\274\274\341w\275\302\255\024\275\227\366\264\275\014\311\265<\200\r\002\272\200\316x;\264A\310\2756\r\260\275 \333\204=\244\036\n\275 p2< \314\303\273\200\274\214=\225\237\230\275\000\247G;\300K\037=\004,A=\246\246\202\275 \\ <\000k!=\340k\272\274\210&s\274\356\311\200=\030\305\337<\010\005\303\275l\217\201=H\2249=\256\010\320\275Vv\014\275\360\267\230\275\257\325\214\275\006~\033\275\200\215\347\274\220\226\252=\030\210\360\274\230\231&=\363jz\275\240M\263\273\014\226\220\275\r\"\215\275\224O8\275z\'b\275\246\234\230\275\202\331\272=\034\\,=\242\364:\275hC><3\366\277\275|\030\252<,\317\006\275|N\250=(b <\000-\227\272\250N\014\275\255\324\314\2758\005s=\346\256\320=<\323\253=h\251\216=\234\317\303=\010\373\346<\3001\252\275\006A\213=`D\231=\262\223\304\275d9\276\275\010h\232\275\252\262\232\275(\306O=\360#\372\274\000N\311\271\336zj\2756z\231\275\244C\256\274\206ac\275P\221\357<\263\223\210\275\264U\274\275\254 \211=\3747\210=\220\303\373;\312U\235\275T4\207=\275\210\204\2753gC\275\262;\026\275\240\375\204=\004>\016=\262:\251=\240\201\217\275\300W.<\320L\352<\0240\264=\234\310X\275\372\3404\275 \231_=hW\373<P{\327;\200\272\253\275\304\205B=\177_\302\275\000\25089\311\030\256\275x]<\274*r\220\275\360\245N\275\340~\022\273zY\034\275\254\025\223\275\020b\214\275\264)\253<\346\205\314=\373\206\254\275\206F\251\275\324\204\001=\263LI\275\250\006?=\370\006\234<0\216\215=<$-\275tA\270=\200\217\371:\034j\201<\000>\037\273\372\344\255=eq\320\275\256\224\261\275\360\223\233\275\034>\017=>\346\260=H?\010=jA\260\275\320s\210<\360,\201;\334\033\233\274\240\2300;c\003\202\275\273y\270\275\216,\254=\242\253:\2758\351\201\275\271$G\275X2\357\274 \224\006=\002\373E\275:w\314\275\226\274I\275\360Q\017\275\347\035n\275\260qv\274\000?^:$R\203=N\360\n\275[\362\306\275 \020\274;( \254=\014.n=\376~\307=\323\000\317\2754\257\227<&\245\201\275\342\347\224=\300\020;;\000\277>\274\304\212\272=8J\260=\004\313\307=\340C\277\274\3406n=`K\301\2744+\236\275\250%|\274\240 \001\273\310\310v=\233.\215\2754T\\=\005\275I\275\350\251\262\275\240G\221=\204OQ=\020\201\231\274S\327[\275\350\177\377<\236\265\234=\030\357z\275\300\306M\273\020n\266=h\3310\274\020;\300\274\310\230d=\235\223\207\275\234\326\245=+\"\310\275<\262+=\216\2574\275v\247\320=\234\003X=\204\361)\275\264\206\373\274p\357\250=(p\233=\204\274\317\275\246\257\241=w\330\203\275\344\344\363\274\205\361\261\275\360\347\271\273ri\276=\270c\310\274?r\240\275\350\016\326<\316\321\222=\242\272\245\275\0260\236=\030MS<\244\005\322\2744\326\200=\340{\014;\200[\031<\350\371\251<\024d\200<:\016z\275\004w\230=h\215\222<\301\007\256\275Jz\014\275\220\010\267=0\342\216<\242\366\211=\320\326d<\2624\220\275\300\263\254:\030\016\026=p\245\277\273\324\205J=\264c\241\274\210\377\317\275\250oX<\200\025\336:x=>\274\330n\210\275hNS\275\014\276\201\275\266\367\235\275s\332i\275\202n\233\275\354a&=\270\267\251<\0345\314\274\3747G\275\272\342\242\275C\373)\275\325b{\275\325\302\241\275\240\036\343\274\300 b\273\014\005\213<P\202$=~\r\220=\340\\u<`Uw<\024U_=$\177\214<H\311\272\2754\366}=X\335\265\274\200S`\273\306-\\\275\006\200\274=\330\303\325<\346a\036\275P&<=\254\242\272<\254\374\r=\260\3124\274\347i\300\275\003\215\251\275\264\201\241\275\200\243O\273P\223\227=@\267\t=\262\r\306=N>\206\275P\311\034=(\326(\274\320M\265\275\2200\254<\370-:\275\000\204\032=T\267\254<\342+\230\275\334\267\301\274\343\3235\275\240\353\026\275\000\250\212\270\030\271k\275\\\335\r=\242=\272=\264}+=\360%\341<\342\377\221\275\270\306\002<\326O\241\275\030E-=\022\251\255=\330T\001<\0138`\275}\327\212\275\366\334\216=hYd= Fn\274`\200\t\273\223>\267\275\010\260\n<\030\\I\274\200\376\230\273\010I\017=\270M\273=\320\0354=\330\235\240<\200\373\023=\304)\271=\352#\265=\"\277\305\275\020\'\217\275*\222\222=\342\230\225=\241+\263\275\350\235!=\3577\303\2752\363\302=9\210\246\275\360\217\017\275\276\017\200=\344\362\226<\322\365\314=\330M\023=P\244\256;3n\301\275\330/\347<\214\323\267<l\210\256\274zl\222=\300\314\035=@\003\202;\270\343\207\275\210T\245\274\246,\227\275\360\255\262\275\000\0072=NL\233\275v\365\310\275\370\350V=\313-\302\275\320\235\302\2730\357\343<N\247\300=@I\257\275\231\023\277\275/\201\316\275h\313\024<(HR=\374\211\263\275x\3478=44\211\274\370\377(=.\037\272=\240\234l=X\2414=\374\365\265=.\335\200\275c\236\233\275\210yR\275\350\331g<\\\233p=\370\272\'=\256_\271=h{x<\364\005\017\275\264\016\007=\000}D\274L\010s=H9\234=\364)$=\240\0020=\3008+\273\202\341\216=\000\265\004:P\335\265\275H\277\235=\233U$\275\306W\250=\000\312L;\3427\210=4\274l=\177\201\214\275F\314\211=\0004\032=\022\002\265\275\220\266\335<\374\276\222=@\272*\273$\'\242\274\262\207\266=\000\342}\273\210D\351<\277(I\275\230\010\036\275$\307\014=\254\1770=\360cI<J\242\226=vm\222\275\022\333\207\275\3429\025\275\210\345\312\274\320\375Y\274\331\033\305\275\252\177\030\275,\244\266=\220\034\266=\254\275\304=\034p\255<\266\024\202=\230b\036<\320\010\200\275T\005x=\340x\210\274\230p\177<\024\207\321\274k\306O\275\274B~=\272\215\211=\267\035\232\275@j-\274$\332F=H\341\036\274 ^%\273Y\242^\275d@\276\275b\322\270=\220\366==\350\335\276<\346\366\227=@\026\304\275\225\377\320\275/\225\253\275\020\337a<\230\222\246\275\022Nf\275\360\023\276<\200\301C:\3647\212\275\210\257\325\274&jG\275\030\375\203=PR6\274*\t\271\275\203\230b\275\246yh\275P-\264\273x\271\037=\244?X=\362H\234=\361\245\221\275*b+\275\320\270\207;\022\241(\275h\201\340\2744I@=\254\257d=\221\376\267\275\243\346\232\275\246<\035\275\354y\256=\275\316r\275z\\O\275\014O\277=\264\266\233=\300\271\273;\010\211j=\004\267\025\275\331\220\206\275H\377\375<`\351e<\344\035V\275*\324\232\275h\361\316<\370V\255\275 \327\002<|1\230\275\022o\307=\244\360a=7+\207\275> \210\275B\'\244=H\235\303<\016L\224=\320\233@\274\300\326,;\020\253Q=\364\326\311\275*M\276=@E\226\2759\234L\275\024\033k=\314\330\215=\317\260\245\275\241\337i\275\025|H\275\257$K\275@\r\252=\252m\201\275,\356\262\274\030]\363<d\266)=$\374\205=@Y\\=LM\234\275\340\237\307<\356\032\005\275\000\206y\275\002\356\205\275j\210\306=\000\210\362\272\224\311\235\275<\213\235=\000\274\014<\200\360\377<\235\263a\275\363\357\221\275xF\320<\316K\315=\217y\177\275\214U\271=\032\275\021\275@rx=\257\363\274\275\346\247\231\275p\350\004\274L\204\214\274\336\357\034\275\300\311\312=p\201\245;\010\301\312<\276\006\306\275\376\n\252=\020\342\213=\000\215\232:\230\306\272=\020r\035<\n\355\305=\330\n\n\275(\332\244\275d\006\302\274\241\272\275\275\270\255\224\275\\\207\200=`\234\306<\325\305\305\275\305-\224\275\031\210A\275$M\213=\366<\221\275\240\2448=\206_\235\275\304\357\311=&c\201\275\320Q\374\274\017\001\262\275\344\206\315\274\300\207\212\272\010 \230<\266\326\227\275\2203\370;\274\227(=\206o\025\275$n2=d=\237\275Tm\223\274\350Ix<\2425-\275pb$\274t\034\033=LM\003=\014_\331\274\354\263\215=\226\360\222=\326]\243\275\354\020\236\275\023g\271\275\260=\035\275\032e\275\2752\"\236=6FL\275\360\353\230\273\'\002\263\275\2660\304=\210\205S<\030#\303<\340\254\201\275\220\277\243\275P\274\310<\320\006\324\274\320;-\274\320\260\262\273|K\262\274$\026\271\275\266\371\215\275h\357\324\274\000U\027:\203\3648\275 M \273\300r\010=pY\302\273\350\023e=0\347\326<\240\234 <\014\330\355\274,\006\301\274\202\202\313=\372\203\262\275`\211\302\273o\377\245\275\254\273\275=(\001Q=t\034\022\275p\262\016\275b=\224\275\037\337\315\275\266\'\301\275@\030)=\320\2419=v\233\035\275\210I\\=\334\253\250=\350\325^=\346.\255=\300\377\031\275Tx\235<\303 [\275\220\322h=\205y\226\275\246\354\226=Y\224\310\275<\020\220=@b\315:\205!\314\2750\246\234\274\2005\027\274+y\270\275\000\\\373:0\205\222<\346k^\275\240\356\355\273t\207\225\275\000\004.\2729\302%\275@\277o;P\302G\274X\005,<\335\020\256\275CU\237\275\360\207\255\273x\307\237=,\323@=\324{\207=@N@=U\0343\275\004%\035=\030C\277=\270i\215\274\202<\251=\020\002\036<\200\374\236\273\235XS\275\"\033\300=\360w\251<\236k\264=\000&t\275`\346\033=&\037&\275\360h\201\273z\017\215=\210r\254=\242\024\236=\373H\207\275\346\225\252=hl[\274P\323\224=\364\336&=xYa<p\306\221\275\245m\260\275\274J\262=\222&\250\275\334I\203<\"2\205=\340\217\222\273\034\202\t=\342A\215=;\204\263\275\374a\220=\344\026J=8x\025=\360TQ=\234\371\214<\002\262\215\275\275\306e\275\000\ty\2750\377l=p\352\031=\000\253\272\274<\216\233=0\344R<^\261\305=-\026\276\275G\310\242\275P\305\310\275\200\255\220=\204\252\\\275\235w%\275\366gr\275\"\332\n\275X\251\201<`\365K=\370+\375\274\310oM<\320\356y<<\366\313=\320\273\276=\222\364\214=\320\026V<X~C\274\360\272\216\274L\335\221=\300\244y=\371P<\275\\\370\302=\020\366\324\273\306W\221=/SH\275\314\275\374\274\030\177\276\274V\207\214=\240\"\375\274\204\212R=\334\260\237<\000\215\177\275\230\223\313<\214P\241\275>\201b\275x\000z\274\360T\235;\223\r\277\275\312d?\275w\306Y\275\000\242\227:\210O\023=\360\230\376\274`\343\353<\220\321\303=\200\207\020;\007x\243\275\240&];\374\t\214=\020\177\324;\340j0\274\024\252\237<\"b\304=\354Ui=\354\231:=<\201\201=P\355\254\275\264\n3=P\214-\275>\221*\275\374?\315=\200\325\025:\262F\206=x\002\\=\300\224B\275\246\034\231\275l\227\350\274\220\376\320<\220\277\260=X\235\260=},\226\275\354\363o\275\010,&=,a\363\2747\361^\275L\000\271=\270\251\360\274\014\344f=\220e\003=\240\302\246\274\254\027\213<\027\213\302\275P\247\260\273U\016]\275\314\247\031=\334\204\000=\234\303$=\266i\303=\344#\200=\240\354p\274=\242\311\275j\320\232\275\003$\230\275\364>\031=%\337\200\275f\361\024\275\024\321==\270u\274\274H\223\231<\264\250v=\030\005\263\274D\372\007=>\220~\275^l\202=\210Is\274`\"\276=\230(\256\275\310<\273=\210\214y\275\200l\223\275\236\310\214=L,\242\274\352e\271\275>*\227=\200\352g\272\234`\263=\270{\333<\210\313q<\023\242\273\275\215\201\252\275$\313\223\275@z6=dk\256\275\350\025\261\275\370\345T\274bB\243\275\255\346q\275\203\006Y\275\277\205\260\275\320)\265\275\224\215\312=\256\000\221=\340\256\221\275x\371l\275N9\240=\350X\020\274\264\tY=\344\037\306\275\000a\010;\332\330\235\275\227\250\274\275\200 \275<\224\346]=x\364Z=\342\177\222\275^\316\223=\270\004\350<\034\241\232\275/\331\224\275\240\325\323<@\314\323;\307\037\305\275J\360\252\275`\276d\273 \351\236\274@\020\354\272\020\230Q<\017\226\210\2750\004X<@O\231\272$\005\"=\260\230\346\273\000\261f\272V\217\211=g\037g\275lq?= =\262\273`\001{\274\"\n\243\275\010\357\310=@\344\227=\224*\314\2758@y=\370\027}\274L\352z\275\326\214\261\2758\253\031\275TI\301=pEf<\230m\230<\300\\\373<\300\177\240\273\357.\256\275\302D\206=H\362\'=\256\313\211=H\246\234=\213\231\232\275c\203\271\2754:\265\275\3645\255\275\276\324\241\275\260\304\316=\260*\n=\300\344\364\274\320\374\365<()q\274\342LY\275\342\217\304\275\320\215f=\310\320\021\2740\253\177<\310s\005=\235\332\246\275\340\353\200\275\344\231@=\250\245?\274XU_\274\341\r\300\275\200X\'=plS\274\246\322\271=\246\034o\275\332X\252=\300\275\300<\233\3077\2754M\252=@\336\225<\340IC\274\232\370\231=\310/\214<.C\215=x\347\314\275\234\260\026\275\\]\252\275\210\354!=F\235\200=\230p\355\274\343`G\275B\350\250=\300\230\363\273$\207\341\274\300\260$=\340\277\321<\020\276.\275\0345|=2n\306\275\2706\232=\020s\351;~\006\212=\324\037\261\274G\242e\275\\\201\261<\337\327E\275B\251\211=\356\206\225\275\320z\342<@\303-<\357\373\271\275\004}\257\2740t =z\254\310=\224\265\251=5Y\220\275BV\255\275J\237\023\275\224R\273=\035\311\240\275\260\376\302\275Px\205\273\306P\225=(\260\321<LC\215<\260\211\233;\2642I=0pW\274XM\230=\010\377?=\240;\355<\010\347/=\024h\223<\3009P\273\372E{\275@B\204\273\244\272o\275-\2078\275\210}F\274\253\215+\275\3305w<\016\036\267\275\226>\270\275`\2658\273\324\310\231=@\243\257;hz\252\274\344p\222=z\306g\275\374\323\214=tW3=V=/\275X\265\234\274,m\267\274\316r\241\275\250\027\242=j\212\271\275\367\334H\275\240\305\253=\024i\374\274Z\222\213=$}\223=\210\3226\275>\034\252=\240>n\273`\032Q;\370Y\314=\354\260\273=b\301\251=\330B?<\000\245\271\273\360O\245\274\220j,=\003\373\272\275l{\023=\274\332q\275\2209\211\275\304\000F=\216j$\275\220\207\355<\030b\212=\\\324\202\275\336\016\213=T\307\\=B\273\274=\331/4\275\014\364e=BQ\265\275(^\302<0P\306=\365\242(\275L\261\221\275\\\2166=<\002\200=\352\016\314=\310:\214=\200o6=\320\224>=`\037/=\374n\207\275\242\200\245\275`\234\276\275\360\230T=\014\212k=m6\266\275H\330\216<(\215c\275i\224\227\275\270\246?\275P\022\323\273\222~\274=\242\206\200\275\r\275\247\275$n\271\274\350t:<\240\021\225\273\324\243I=|\352\242=\247p\244\275\0248\224<\000\022\351\274v\332\202=\300\267V;\000\037\367\272\310Bf\274>\264\244=\020\003\317<\260\310m\274\273l\235\275@\027\356\273?\360\225\275]PV\275P\225\370;h\036\202<\207O\301\275l\352\305\2740\337\021\274t\360\211\274Z+\200=\310\317\245=H5\265\275H\013\236=\312^\216=\266i\262\275\010\303\307<\230\247\213\275\227\002\222\275~\354\272=/\246\233\275\010\030\312=\304Rf\275\330\251\027=\344\375`=>v\207\275\230\250\035=\335\267\245\275\374b\237<\374\231,=s\363}\275\010\366\007<\362\310\316=\236T\224\2758\311\216<\316\325\300=\200\016\356\273%\\=\275\3606\263\2730\224\020\274\\\034\201=\002\346\230=\3055\301\275\'T,\275\006\"\216=\227\372v\275\034\235!=\320\201\276=H\232\236\274N]\231=\364}\252=p\016c=\013\372L\275\030\202\025<<\r\247\275b\367\267=(\021\017=\347\266\253\275\314.$\2750\222\355;\034\351\304=\014a\204<\327\016L\275\274{\245\275~ \305=|?w=\306s\242=<0\031=\030\241~<\350{\010\275\225J7\275\330\212\301<\304Z\235=\250\343D\274\233\372\247\275\364\325\207=\030\000\362<\240\253\214=6\366\215=\020gn=lq\320\274T?b=\\3\201<<0\230=p>z<\310\346\372<Xi\304\274|I\002=\\\263\232\274(\312.\275dg\272\275\026\037\242\275\360\375\217;o\364\313\275\034\237\316=\200>\230<\014\342k=.\006\207\275\006\201\037\275\270(-\274\034{S=8\255\t=<J\303\274\244\013\207<\234(\221=\234\241\002\275l \236\275\210\022\016\274\264\203h=`\227\276\273\354:\241\274\370\3145\275\010\212E<\250\235\256\275\000QD\274\376s\273=Hsj=z\365\266=rD\315\275\304~\213=\024`\017=\340\316\013\275\020v#<\234\263\252<\3102\244<\274\265\244\275\2008\266\274\360\206\210=\310\340\300=\254\352\032\275\374\033V=\200<\256<>\030\314\275\200\025K\2726\000\275\275\320\t?\274\250\327\204=\330\304\375<*\365\222=X\326:=8\367[<|\372\300\274*A\222=\270\0329\274\372O\301=`\304|\274\230\031\337<\214\363v\275\350\343f=\0241\252\274\220\252\352<P\353\320=\200\362\035=\302\267\300=x\362\t=\310I\277=\272\277\221\2750GV<\370\254\034\275\332C\017\275\240A\301<\317\201E\275T\006\266<H\220\300<p\007\315\273H\004\213\275 r4;\200\305\214\274\200#!\275\271\211M\275\376\232\233\275\370\206\314\274L\002\310\274\360\033\223<\270\365\317=\221DP\275\364P\253=(9$=h\376+<G\261\257\275,z\236\275\346U\237\275\300\322\242=\354\014\031=\320.\224\273\"\214\307=p\225\307<\230\0004=\030\317\270\275 \250\231=\214\002H=\324C:=t\262\217\2754\316D=*z\252=\306\303\243=\214\t\220<\"u\306=\221\361\262\275\340%\257\275\"\300\203=f\353U\275\022\332\226=H\311f<\220+\230\275`C\256=<\002\237\274\014Z\006=\200$!\275\200D-<\360\3321=\320h\306\275\264\020\221=\020\274\n<(Y\313\275\220j\241=\034\004\234\274\362j`\275R\025\266\275@1a<\020\0207<\014M\314=\220r\223=\030\235\273<g\211$\275\004qj\275\324\201\306=\000L\205<\240I\031=42\221=\242\316\205=n\276\264\275\224\232Z=\325o\\\275t\260\267=\321\357\206\275\014Y\267\275h\350\357< \"\311;h\377E<\352\r\235\275Wn\205\275.\327X\275\300\201\262\272\004\224\316=\224i\323\274B*\246=N\252\003\275\0100\237=\000k7:kK\306\275~S\314=,\241\'=\220\020s=@\033U<\330\226*\274\"\257\206\275(pT=\302\230\235\275\264;\325\274\360E\256\275\216!\227=\364\347\313=\324\030\023=g\257\241\275\273\005z\275\220\262\224\275\004\024\"=\274S\215\274D\311\211=\370\2400<\360\322\322\274|^\215=\310\210\275<\300\354\224=rPJ\275\010\033\234=\352\327\262=\363\377Z\2759\300\255\275\210\016b<\263\240Z\275\247\364\317\275>\360\262\275\312o\313\275\217p\230\275x\227\023\2740`\336\274\336\211\224\275\036\003\257=\010\347\237=\010Y\006\275$w\224\275\310\207:=\000i\265=\327\365%\275\014>%=\320\003e<\000\237]:\233\317\205\275\2447T=,/\253=\240\\\233=\366h\203\275\274$\202\274\236\216 \275n\246\013\275\000I\021;x[\022=\360\221\322<\213\331\240\275r\217\205\275\200\251*\273\232J\206\275\2467\216\275\030g\200=\354\223s\275|\207g=\\9\203=1\204\235\275\340R\024\2744\236\253=h\023\025=\230\305\"<\314\224\312\274\37524\275\\\335\256\275b\371\202=\270\217\236\275\3327\274=2\006\305=\000a\025\275\240\302\027=0\336\263\275\220]\363\2730\332E=X\330s\274\t\317\237\275R?\303=,\250\300=H\333\022<\305\016/\275\034\371\032\275\340\004\372<\370\366\225=,\202g\275\326\245\212=\357\240\246\275`\254\353<\314\227\207\275h\2269\274\\\307R=+#O\275\366\321\234=\013\254\214\275\206\177\224=\024\227\232<\320\030\363<\200\206\252<\032%\304\275\256\243\023\275x.\214=\232g\217\275\360\351\023<`w\266\275\274\016\226\275\220\261R\274\250\336\356<\"\271\003\275\000\363\200\272\010F\253=\300\"\013=\240\310\362<\344\"\274\274\000\201N:J\301\007\2754\2704=0\213\n\274*\225\234=\300o9=\262Y\253\275 5w=\372\327\037\275\362\234v\275,\000\235=:W\315\275h\337\026\2757\014\320\275\310\354\277\274,\231\271=\304\036\271=:l\265=\260\324\310\275(>_\274\014\242\024= \255;\273rV\252\275T\373\220\274\200rd\272\320\320\272<\224\326;=z\266\203\275\330\010Z<(\255+\275\265B\212\2750o\334\274\340\263b<\264\323\300\275\370V\240=\220\272}<( \033=\000\361\326\271 @\207;`\377\262<\246\346\274=\314\236\300=\302\226\262=\322\333\204= X0\275h\212a=\324\203\211\275\360\022$<\020 ?\274P\324\252\2750\256\271=p(\311=\320hJ\274\344\303\377\274\272\362\216\275\000\301\212\271\020h\203\273\234\213C\275l\027\213<|\360\203=\320\275\220\273\3448\'=\220\377\210;\356\242\211\275\034\331\311=\010\212\023=\377h.\275\000\300\2128Vv\236=\024\r\216\274\214\010R\275@\031\007<\002*\274\275\304\000\251=\030\337\300= \334\305\274\010%\207=\005y\240\275,\226\035=\305\271\225\275\340l\331<\240\025L;\230#u=\364\271\317\275\026\356\211=$\204\216=\370\316\274<\374\270\376\274L_\316=\206Y\232=\324^\004=\014\263b\275\016C\215=\324\016j=\222\364\265=\242\333\212\275@\307\373<\260\325\326\274\340wZ\274\006\337\317=\004\321\\=\000\222\326<\010\236\233=F\331\206\275\300\201M;\2222\223=\0300P<\210d\365\274\360k\350; <\376\274\272=\202\275\224^\313=C\216D\275\350\315f\275\304Us=d\354\350\274\034\360\337\274 \270\220\275(\306\350<XZ2=D+\204=\000\240\244\270\372\335\313=`M\361<`L\276\274\262\357\243\275`,\271\275F\322\223=P#\363<\230\242|<\022,\203\275\374K\251\275ry\260=\356\021\024\275\354\036\235\275\240\355\034\273@V\277\2737\326\316\275\314\361\315\274m\243I\275(\353\363<\266F\256=\034\216\027\275l\361\312=\230\317\"=\220\212 \2748=\237<\314?q=\234\216\207\275\240\372\245\275t\312\300\275P\2741=\030\230q=\340T)=\352\316\027\275\000\210f;\210\272^=\340\242\237;b\240\236\275l)\274\274p\263\216\274d\375\256\275`C9\273T\n&\2758\370\016=\312\372\274=\230\030\373<Xp%\275\306h\217\2750\213\230\273\034 1=H\r\370\274`K\234;\370c\202\274\300~\300:\360\244J<B[\255=8\257\304=@j;<\000Dm\275sL\276\275 \303\003;\200\331\255<B\275\256=\350Z\350<\310\225\030\275\2346\246=\372\2431\275\\)\366\274P\314\255;\200[9:\220\217\226=\026C\276=\212\033\220=\004\346\000=P\326F=\260\032\301\274\022\260V\275\262V\276\275\340l\261;:s\201=$D\200\275\362\"(\275\354\337\211=\030$\227=\263\300\317\275\360f==l\321J=\251\027b\275\330\332\212\274f\322e\275T\016\002=4&c=\262n\313=\310m\016<\254!`=\273U\316\275\362{\004\275\020\327\202=\240\241\020\273&v\263=\240\024l=0Sf\274\370\003\\<\363\344\256\275P\220F< \325\315<\320\020\312=(\271\027\274\014\242\331\274\370\236u=\350}\310=_\375\210\275\324\376\221<h\355T<\244\0342=\270\330\327\274$\332\027\275\300\341\232\275,\177\276=\300\231{;\312\376\237\275\214Dg=\014+\200=\274A\033=\374\303T=d\023\256\275\335\364L\275\"\030\025\275\024-\220\275p\242P\275\354\210\240\274(Q\261\275Lfn=P\354p=\224\\\275=\350\313{=\230T\227=>\307z\275\370\342\320\274\000R\0319\375\271\207\275\300<\335<\344\347\253<w\235\270\275\320\200\355;\274\212\214=\320\206\'=\330\r\237\275\240\350\355<\351\033o\275\200\320\227:H~\032\275\274\304\310\274\304C\226<\230\350\270<\320B\307\2739\375O\275PfS\274\300\316\274<0?\330<\016\322\216=\200\030O=\"D\306=b\201\242=\264\231\301\274~\036\000\275\370\010\310\275\314\361 =L\254;=\334\215\221=\200\t\242;\230\351\210\274\370\261#<\230\377\031=\024\026\201\275\345\010:\275\013:\241\275\372=\234=\026\320\202\275\030\226s=\321\227.\275\350\3148=\\\325\n=@\230\377<\000\357\177:\000\027\332\273J\371\240=\0277\226\275\220&\256=\320\326\337<b\003\320=@u\307\272\220s\222=\217\354>\275\270u\202\274\230\006l\274\276\024\205=\000(-<\220\202\000\275\340\r4<X\030v=\340!\302;\204\257\203\274\020\227\313<\254P\203=\365\326h\275\230P\200=\300\250\310<\215!w\275<9\355\274\372\260\204=\000\253\024;\240c;<\034\352\232\274\026\340\206\275\314/\253\275\376\374\235=\304\016[=\030\005\313=\334\314\263\275\215\023\260\275\377,\267\275\225\006\300\275\240\267\251=\000\002\3449\3662\214=p\346\340;E\304\232\2756\367\036\275\010P\277=\264\261g=@N];\210J\232<\370\016\'\275\350.\003=H-\227\274\\\333\265=\200\t\361;\250av\274`\365\251\274\354\255\220<@\005\024\275\320\357\333\274\320\370\245=]\2552\275\tk\274\275\274\306\344\274|u\361\274\2407m=m\202\250\275}\3430\275\300U\201:$\223\302\275\264>\211\275\324g\333\274\254\202\213\275X`\216\275;G\225\275(\2104=\344\035\226\275\020\007\235=pB?<\340\342\233\273\001\006\313\275\356[\246\275c\315_\275\320\257\026=\200\3037:\020\376\347<f\330R\275CY\270\275*.\257\275\350b\027=\210\304\300\275V\200\241=\310\264\375<B\355\211=\034n\252<b\203\207=\262\252\000\275h\340\335<\260\272\014\2744Yd\275lP\211\275@2\037;0\226\240\273\232\326\310\275\300,\245=\254uy\275p\\\257;\214\021\272\274\200\303\303<hQ\344<\010(%<8\313\014\2745\261\215\275\000uk;\3341\214=X\257\274=\032\307\314=\212\007\304=kXF\275`\013/\275\214R\246= 1\241\2750\000|=pW\014=\274\304C=\310\306!=\304\354\213=p\355X=X\356\375<\213\362K\275\340\360H;\372\370\246=h\201\203\275\320\244\031=\314\214H\275T\235H=\240J\215;\\\n9=\212\304\220\275D\034\367\274\307\003\204\275\3407<\273J\227\236=|\327\252=F\365\214\275\254\316f=\020*\005<\261\311q\275\020\215j\274\250\234\373\274[g\276\275\205\032s\275(\032\322<$_\361\274\324[\211\275\324\023\202=\340\254\214=\000\036r\274n`\264=\300\256\227\273\200\351\224=\020`\265\274\204\333==pm\307\274E\253E\275y`\262\275h\236\306\275\264\264u=\004\035\210\275n\312\315=\357\331\313\275H\272\375<\336\347\230=\366x\254\275@u\215:z\356\305\275P[\310;M>\236\275\200\313\240\275\367$y\275\325\237G\275\\\343j=({\376<R\034\230\275\220o\270\273\327\213\272\275\334\261\202\275\260\322L\274\277m\221\275\202\372\245\2754E\006\275L\006\002\275\320\336\014=\354\307\276=\316\2541\275;B\302\275p>\221\273\001\032\265\275\\\355|=\3743|=\326\321\224\275\014p\260=\204`3=\230xW=\324\232,=\035!\320\275^X\257=\022z\276\275\204\273\302=|J#\275\320\222U=xB\177\275\214\372\342\274m\210\242\275\224\2430=\364\237Q=\020\017Q=\226\351\276\275\250\006\372<\370\376\\=X\000\023<h\000\317<@Q\330\273\243\343D\275\352\013\211\275P\227\220\275.\221S\2750\362K\275\3240 =\212\365\307=\250\2301=V{0\275|\023\235\274\210\237\242\275\237\205/\275\274\240b= \256\246\275f*\260=\232<\254=8x\263\274\350\000\215=\020\273\270;0<\234\275D\004\213\275 \036\261=H13=4g\236<Rr\311=\310q\232\274\212+\245=&\r\257\275\320H7=\331\3300\275 \033\276=\376[4\275,\303\007=A+\302\275\020\271\317=\220\013\342\274\2004B\272\227\320I\275\362e\201\275\314\221\224\274\020\315n=\316\032\263=\030\374X=\303\214\276\275@\2628=\350\234\233=\272\205\222\275\354x\243=.\242\214=\016\244\014\275\220\377\312=\350o\242=\032\017\216=\342h\204=`\365\301\273\200\311\264=(\304\226\274\276\352\222=+\202\311\275\270\211\304\275\n\300\202\275\274\352\005=x\277\332\274\351\200F\275\020\371\351<\032\006\265\275&P5\275HR\r=\360\221\265\273\270\377A=\230\265\211\275\240\252\022\273\020\032\222;\264\367\000=4E\313=x\373h=T@\235=.p1\275B;*\275\3302\024\275\224\356\260=l\232\354\274\321\n\316\275\206{\232=\304?\333\274o\n\301\275v\024\275=\312p\273=T\032e=\004\2740\275\330\275G=\330\0200\274\230\0143\274\220r\024=\334\244`=\003\016\261\275\354\331y=\260\007\266;\350\034\232\274~C\236\2758\300\237\274\330Bc\274#\367\247\275J\266\210=\2207\345\273`w\'\274\264\331\272=\252K\275=\260\255\230\274X\362L\274\216\017\r\275\260\362s=\366\361\227=\233\361\315\275\276\177\233=\260&H=\215\206=\275\004\002\366\274d6\263<D\025\037\275\200\302V=\030\350\306\274\257\334\177\275.N\240\275\346h\304=\"j\243=HR0\274\271 \262\2754B2=\330%*\274\350?\214\275D\024\201\275\270\r\276=\3502\255\275V\276\036\275|T\221\275\200\312\323<\010R\361<0\324G=\350\315\332<\034\2350=\250kZ=s\225\220\275\214\231\001=\336\331\220=$w\241\274: \200\275X\n\252<X{\334\274\240\266\262=\225\203d\275*\327y\275\304\004\203\274\004\324\243=\370\033\236\2756N\242\275\\\362\006=P\236\370;\342.\274=\234\323\275\275*\003\312=`X\236=\224\016\320\274L@\275=\310rH\274\210O%\275 H\300<H\2358<`\321$\274\215\344\206\2758\351\264<,\255\335\274\210\373\211<\204\272&=\3649\306\275\331\372\303\2750\177\005\274\206\271\222\275F\312E\275\242\301\212=\342]\017\2751\200\261\275t\213\206\275DU\310=\324\213w=\230<k<\200\002\327\273\315\013D\275\000x\0019\224\366\224\274dq\203=X\026\271=\271\335\236\275`\347x;\021\002-\275,\221\226=\317\251\277\275~I\254=pZ\375\273l\025<=]O\230\275f0\212=\2601L=\375\221\262\275\274\235\234=]V\302\2756\352\210\275\246\256\213\275\262\270\250=@\255[\275\240c\240\275P\321\037\274T4\264\275\240^\003\275\257\345f\275\022\264\307=\240D\263\273\350O}\274p.\206;`{\201=X\357\244<\274\t\255=o\270\230\275v.\252=x\026E=\300W\273=\332\253\217=\370\021r=L\\\247=\030\323\311\274<\"{=\372\333}\275\024\333Q=x\214\252<\000\244\260:\364\006\233\275\204\231A=p\027\265=\324)s=\026\316\245=\026\363\223=P\240\227=>\265\007\275\300\267\244=\304\234\023=\3543m=\320\036\312\273\300\275\320<\320>\306=t\357\210=\220\037f\274\370\363\251=\010V\371\2748\274\203\274h\3047<@\\\247;0\251\367\273\332]\230=\240\255\302<\014\275\221\274L\247\026\275\023h\246\275\224\360%=\026h\274=\2742s=\260<\263=\210a\312\275U\333$\275\360\022\270=D\254\351\274X\345)\2743@c\275\337\211\274\275,\330\220<\366\371\275=\300\216\031<\020\344\372<\370|\306<\343L}\275\020M#=\246\217\270\275\240\350m\274B\314G\275\364N\301=T\256\005=\000\263\237;\200\313\254=\320\224\264=\014\177\235=C]\314\275\236H\t\275#\033:\275\240\n\252\275\240n\t\274+5x\275\330\010\216\274\311\177Z\275$R@=h0\232=\356\232\261=>a\236=\214\233\253=\004\207\244=.?G\275\210`\021\274\352D\306\275>[\301=\350\324\367<\354\352\310=\232y\271=\316\245\232\275\254T\016=\270\333U\274x\223\204\274\230C\370<\034<\255\274 \215\277=bw\211=\250\223\324\274,\270&=r)\016\275>\304\033\275bf\026\275\036o\000\275\260\367\201\275\240\037\316<\252V\255=\304\361\215<ZO\267=\240\266\241=\246\204\207\275\013\031\273\275\210\362}=\020X#<\010\025?=\010\327\221=\304\352\024=\022\366\215\2753\034>\275g\240D\275\200{\206=x\376\325<`\370\205<P\372\320;\210Y\202=\340\035e=DE\260<\001\r(\275X]+<,\371\005=\310`\311=\000v\340\271\206\014\224=\274~\233=\232\251I\275\306\344\200=\314,g\275\300F%\274\246\234\317\275B\034\270=\230u\010<<\271\307=\0204\317<`\177\222<Ev>\275x\016\366\274\236\330\236\275/z\210\275O%,\275\350\010\344\274\210!u\275`\360\246=\220\327\275=\2207\201;\340\013\035\274\260\020\354<n\014\231\275$9\273\275\2309\307\275\020W\225\275\200\016\031\273\014d\353\274x\360\275=#\310\264\275\314\316\306=l\261\250=\360W\201=\220\354\250\274s\204\240\275\301\211\\\275?\025\232\275<H\210=\300\316\241=\000\270\2278-\024\275\275\225\t_\275\274\025\023=p\371\355;\200\311\330\273:\025\206=omw\275@W3;\022\273\214\275\\\357\254<\340Kw\273\000\034C=\002]\304=\336\216\301=\340\205\270\275\022\247\252=\265\353K\2750\233(\274Fi\306\275\300\202\205\273\353j\317\275t\205\363\274@U\025;\320>\275=\250r\017=dL:=\2203\370;\370x\201\274\3226\222\275\022\001\226=\200\345\247<\350\227\261<F\317\316=8%O\274\264\310\354\274\320\246L\275\240!\204\273\020)\370<\270\357\210\274\\W8=0\341\026\275@d-=P\227\237=P\262\361;4\351\226=N\374X\275\322\033\241\275\000\3730\2734x\240=\250\372g=4\310\301\275\322\t\257\275\224\303\t=4\022\267=!p\233\275>U8\275\264_\326\274@6\256;\002\005\313=\210\2240\274\210\345\\<\246\3175\2756>Q\275T*\n=2\234\267=\026\247\027\275\365\272\254\275\000\r\010\274$s\357\274\260\371\204<\252r\251=<D\206=\360\342\326<T\n\320=ta\243<H\317\270=(w\206=\320\263d<\254\213Q=F\370\216=\020\036*=\340b\371<^\260\272=W\037\242\275\305\270\300\275P\353K<\024\251f=\010\377-=\300@\253\273$\027\237=\200\345R\274\312v\014\275T\232<=\334\376t=\356\315\247=\340o\315<\020\246\006=f\216\275\275\025\356\201\275\240\335\312\274\260\360\273=\242\345\202\275 \236\001<hye<\240T\276\275$\321\276=\030\\\274\274n\335\303=\270z;\275\220\"&=0*\006\275\234\027\206=(\263:\274@\250\330<\200\3063\272\234\230\277\275|y\272=\206G\261=\210\206\313<P\307\277;\034\346\201\275\010\347A=\204\211\256\275@\361\021\273\262c\236\275\330Od=\340\0336;\214\233\302=@\214\232=\273\024<\275\324\271\211\275t\256\260\275\276\306\205=\344Y\023\275wi\234\275(\364\245<\210\036\256=\264\244\232=4d\300\274\303d\304\275`V\327\274\311\324;\275\334TB=\013\232\275\275\230\2223\274t\347\034=\000\214Y\271\274h\302\274\010\364\027<\370\373[=h\026.=\0020\311\275\034\270\004\275\362\027\245=+\305\274\275x;\243\275`\"\263<\210\300\215\274\364e:=P+\035=\236J\200\275q\253#\275\310\276\340<\022\036\210=N-\214=\030\013\302<\340o\014\2759\327\200\275\374\357\'=\213\303T\275\230\245L\274f\254\225=8\265\305=4\014\220<;\362\200\275pl\316=x\021^\275\370\335\206\274@\022i=b\276\210=\220\204\352;\344\234\032=\301\016\276\275t8\205\274\250\320\014=\346\255\306=\370\355\n<\334Yi=\244J\226\274\272\325\020\275\001\234\266\275\024\177\306=\307\240\307\275\310\373F<l\336\254\274\204[W=(\206^<\371\367r\275d\201\033=\336\270\236=\244\332\301=\224\230\204<\210\000\313\275\302\323\310=\276g\246=V\t\315=H\367\211=\260\023\274< :\004<xXF\275\020\3125\275 \324\360<nb\215\275 SU=\006\252\204=\300\235\265:\\\2019=\020\313\241;\030\302\201<\354\'\214\275\347]#\275\340R\337\273\260\306\362;\240W-=\246\333\244=\350F\265<\016\260S\275\260\3630=R\013\036\275\352\306\264=`q\200=\244\375a=%.;\2753f\230\275\310\215\023\274:1\306\275\334m\026\275 (\267;\352\374\271=\310F\021=\260)\270<,\213\251<\022\235\001\275\330\255\342<\3009\221\273\220\264\204;^)\236\275F\337\277\275\354\324\035\275\036\026\\\275\200\200\251\273xU\210=\357Bk\275\250\2667=\342X\230=\250\376\223\275\006R\232\2755go\275\232B\203=\013W\257\275nw\307\275\253\260\\\275\210\365\232\274\260\n\026=\310\311\010\275p\212\263\273\204\241\236\275\370:1\274\264\177\317=\260\222\247<h\021e=\252\035\226=d\310\315=6\024\203\275\250s\355<H\377q<$\313\246=\314\020\266\274\000\\\333\273H\370\313\274 6\323<HV\311=D\230\220=\307\200\311\275\360W\234=\3608\272<\334\322\273=N:?\275F\236\t\275\310\375v=4\001\204=\206\350\262\275\240\277\277\275\370\344\022<\004\265\273<\321\320\312\275\2265\032\275$\206\377\274\202\372A\275\304h\t\275\344 \333\274\210;\210<\230(\003=\364\241\210<\200\371\234\275$-\032\275\000\321\t\275T\007X=\2124\272=\010\327\311<\\\007\252\275\200\225\267\274f{\317=2\"\007\275P\031\337;\340\2118<\300]Q=\342,\177\275pU\352<\304\241$=H\212\311=\262\336\246=^\270T\275\276\330\300=\023?-\275|\327\241<\340F\031\274\334E\213<\354\227>\275j\335\243\275\244\037a=\266\331r\275\312\234\251=\256z$\275\373k\200\275Y\255\206\275:\274\246=Zt\261=\030\247\005<\000\226\231\273r\303\234=`\201\203;\002h\317\275\262Q\270\275\343\346\312\275\304\364\263=\330\2547=D\020\245\275i\332@\275p&\263\273\3440\301\274\200\375\274;\360\340\322;n\010\251=\022\307\274=m\354w\275t\370\205=\264\235\311\2742\t \2750\232\244;\336o\202\275\371\037\273\275\2242\275\275D\251\224=\377\254I\275\232\371\242=\033\366\217\275\303`\264\2750p\306\275\256\246{\275X\215y\274\206y\307\275\267|\270\275j^\225=\304\277U\275`T\007;\350\357\240<\374\001[=\330\242\253\274\272\377\227\275 u\357;Rj\213=\322!\241=0\033\207;T.\035\275\312\014>\275\224\036\217\27569\272=<\0255=\354\231E\275\340W\360<\300\036)\273\214\215O=\255\275\242\275\256\344\027\275\"\273\303\275\371w\274\275\000%;\272\316\001\250=\230*\013\274K\001:\275\310\027?=\344\3163\275\004\366\263\275L[\310\274\277\2329\275@\244\251;\"\312\244=\000\342p\274\23097<Rs\307=\017\203r\2750\314W\275\310\254#\274\030\031\237<pMY=Z:\253=\300\'\301=\204\356\233=\256\314/\275\236l\211=\220\272\233<\240\204t<Fs\271=\300\320\326\272!\321H\275\277\317e\275\264\340\006=\210\211\237\275\200\327\241=x\357L<\360\372\317<\204a\271=\343k+\275\020\006B=D\345\257\275\211\236}\275xR\347<\264\037\233=X!2\274\274[\027=\243\020\204\2750\326i=\020\320\317=(!Y=\204\225\230=T/K= ) =@?\222\273Z\232s\275@\2269;\224\031X=\346\340\220\275\300\010\003=\210wE=\300\353\366;f\006\230=\"\200\n\275\350\224\\<\272\327\217\275\362\n.\275\210/]=Z\024\210\275`yZ=,w\201\274\222\303\307=\230\006\225\274\024\240\023=W\363I\275,l<=8\271\300\274\346\034\304=E6\245\275^\316\263\275\310\246Q<\360\255\247<:\006\205=\374\006\265\275^=\232\275\325\\k\275\313\243O\275\244Pj=\010\004\200\274<\265w\275 \024\223\273?\r\276\275X\324H=\004\305\264=02\016\274\306q\215\275\330\317P\274\310\244\261\275\030\261\275<<X\300=\235\266.\275\300X\032\273\353\333%\275e>|\275o\301\237\275\000tS:\231\200\200\275\214YW=\344\274\245\274`K\277=F\\\267=\274\213\274\2757K\312\275rM\214=\350\251\212\274\224@\300\274`\3438<\310\021\361<\204\272\216=\346\000\242= \214\'=\257\331\216\275\266\030\262\275 \326\277<JkS\275=W[\275f\321\276\275h\035\251\275\370\234\006<P\276\240<p\276\027=\220i%\274d\224\210\275\220\354\220=\376[\245= \356q\2731\214W\275\302\342\227=\364o\316\274N\266\234\275\354<\243\275\376\255l\275\240\206\003\273h\034%<d\005b\275P\t\205=\332]\210=\210)0\275\372;\240=\240\247\273\275\200\320\363\273@\001\236: \347e\274\010h\245<\202\324\207=4x\232=\200\333\304=G\246\264\275Vg\211=\322*\317=\0249\377\274Z0\034\275\340;\237\275\314\363\224\275\234\246\246=\020\357\017=\000@\3076\030\010+\275t\375m=\342\373\276\275\240\350P\274\262\323\303=\020C\326\274j\014\277\275\210\333z=[\345\217\275\320?j\274\372\227\264=w\"\224\275P\267\264\275\370pG<\272u\201=\200\226\030\275\364\221\211\274\360\254\004<\362\346b\275\260\177\306\273X\352|<\343FP\275X\220\032\275\223\324\302\275\322%\264\275\320\225\230\275tfs=\210\225F\274\350\222\226=\202\276\201\275\244k\363\274!\346\260\275\233\214\250\275\354\242\030=8y\276<\306\265\203\275\034\032G=\304\306\233\275\244\326\265\275\006\360\201=\2751}\275\036\204\204=\020\255\256<\3679/\275H]\227=\330\020|<fM\227\275P2\201\275\372\023\215=T\323\264\275\200\344\024;\300j\257\275~L\312=py\271=\331\023e\275\036\2359\275\003\345\223\275\300\'\234=\032|\224\275\244\367\310=@\'\233\272\236f\212=<\357\204=h1\"=\304!)=N\210\t\275Z\367\204=\226\031\'\275\010\302\242<\264\242\226=\300R\223\272\210\220\310=\\\371\201=\027;S\275\304]\257= 